{
  "version": "1.0",
  "truncation": null,
  "padding": null,
  "added_tokens": [
    {
      "id": 0,
      "content": "[PAD]",
      "single_word": false,
      "lstrip": false,
      "rstrip": false,
      "normalized": false,
      "special": true
    },
    {
      "id": 1,
      "content": "[UNK]",
      "single_word": false,
      "lstrip": false,
      "rstrip": false,
      "normalized": false,
      "special": true
    },
    {
      "id": 2,
      "content": "[MASK]",
      "single_word": false,
      "lstrip": false,
      "rstrip": false,
      "normalized": false,
      "special": true
    },
    {
      "id": 3,
      "content": "[CLS]",
      "single_word": false,
      "lstrip": false,
      "rstrip": false,
      "normalized": false,
      "special": true
    },
    {
      "id": 4,
      "content": "[SEP]",
      "single_word": false,
      "lstrip": false,
      "rstrip": false,
      "normalized": false,
      "special": true
    }
  ],
  "normalizer": {
    "type": "Sequence",
    "normalizers": [
      {
        "type": "Nmt"
      },
      {
        "type": "NFKC"
      },
      {
        "type": "Replace",
        "pattern": {
          "Regex": " {2,}"
        },
        "content": " "
      }
    ]
  },
  "pre_tokenizer": {
    "type": "Sequence",
    "pretokenizers": [
      {
        "type": "WhitespaceSplit"
      },
      {
        "type": "Split",
        "pattern": {
          "Regex": "\\d"
        },
        "behavior": "MergedWithPrevious",
        "invert": false
      },
      {
        "type": "Punctuation",
        "behavior": "Isolated"
      }
    ]
  },
  "post_processor": {
    "type": "TemplateProcessing",
    "single": [
      {
        "SpecialToken": {
          "id": "[CLS]",
          "type_id": 0
        }
      },
      {
        "Sequence": {
          "id": "A",
          "type_id": 0
        }
      },
      {
        "SpecialToken": {
          "id": "[SEP]",
          "type_id": 0
        }
      }
    ],
    "pair": [
      {
        "SpecialToken": {
          "id": "[CLS]",
          "type_id": 0
        }
      },
      {
        "Sequence": {
          "id": "A",
          "type_id": 0
        }
      },
      {
        "SpecialToken": {
          "id": "[SEP]",
          "type_id": 0
        }
      },
      {
        "Sequence": {
          "id": "B",
          "type_id": 1
        }
      },
      {
        "SpecialToken": {
          "id": "[SEP]",
          "type_id": 1
        }
      }
    ],
    "special_tokens": {
      "[CLS]": {
        "id": "[CLS]",
        "ids": [
          3
        ],
        "tokens": [
          "[CLS]"
        ]
      },
      "[SEP]": {
        "id": "[SEP]",
        "ids": [
          4
        ],
        "tokens": [
          "[SEP]"
        ]
      }
    }
  },
  "decoder": {
    "type": "WordPiece",
    "prefix": "##",
    "cleanup": true
  },
  "model": {
    "type": "WordPiece",
    "unk_token": "[UNK]",
    "continuing_subword_prefix": "##",
    "max_input_chars_per_word": 100,
    "vocab": {
      "[PAD]": 0,
      "[UNK]": 1,
      "[MASK]": 2,
      "[CLS]": 3,
      "[SEP]": 4,
      "!": 5,
      "\"": 6,
      "#": 7,
      "$": 8,
      "%": 9,
      "&": 10,
      "'": 11,
      "(": 12,
      ")": 13,
      "*": 14,
      "+": 15,
      ",": 16,
      "-": 17,
      ".": 18,
      "/": 19,
      "0": 20,
      "1": 21,
      "2": 22,
      "3": 23,
      "4": 24,
      "5": 25,
      "6": 26,
      "7": 27,
      "8": 28,
      "9": 29,
      ":": 30,
      ";": 31,
      "<": 32,
      "=": 33,
      ">": 34,
      "?": 35,
      "@": 36,
      "A": 37,
      "B": 38,
      "C": 39,
      "D": 40,
      "E": 41,
      "F": 42,
      "G": 43,
      "H": 44,
      "I": 45,
      "J": 46,
      "K": 47,
      "L": 48,
      "M": 49,
      "N": 50,
      "O": 51,
      "P": 52,
      "Q": 53,
      "R": 54,
      "S": 55,
      "T": 56,
      "U": 57,
      "V": 58,
      "W": 59,
      "X": 60,
      "Y": 61,
      "Z": 62,
      "[": 63,
      "\\": 64,
      "]": 65,
      "^": 66,
      "_": 67,
      "`": 68,
      "a": 69,
      "b": 70,
      "c": 71,
      "d": 72,
      "e": 73,
      "f": 74,
      "g": 75,
      "h": 76,
      "i": 77,
      "j": 78,
      "k": 79,
      "l": 80,
      "m": 81,
      "n": 82,
      "o": 83,
      "p": 84,
      "q": 85,
      "r": 86,
      "s": 87,
      "t": 88,
      "u": 89,
      "v": 90,
      "w": 91,
      "x": 92,
      "y": 93,
      "z": 94,
      "{": 95,
      "|": 96,
      "}": 97,
      "~": 98,
      "": 99,
      "": 100,
      "": 101,
      "": 102,
      "": 103,
      "": 104,
      "": 105,
      "": 106,
      "": 107,
      "": 108,
      "": 109,
      "": 110,
      "": 111,
      "": 112,
      "": 113,
      "": 114,
      "": 115,
      "": 116,
      "": 117,
      "": 118,
      "": 119,
      "": 120,
      "": 121,
      "": 122,
      "": 123,
      "": 124,
      "": 125,
      "": 126,
      "": 127,
      "¡": 128,
      "¢": 129,
      "£": 130,
      "¤": 131,
      "¥": 132,
      "¦": 133,
      "§": 134,
      "©": 135,
      "«": 136,
      "¬": 137,
      "­": 138,
      "®": 139,
      "°": 140,
      "±": 141,
      "¶": 142,
      "·": 143,
      "»": 144,
      "¿": 145,
      "À": 146,
      "Á": 147,
      "Â": 148,
      "Ã": 149,
      "Ä": 150,
      "Å": 151,
      "Æ": 152,
      "Ç": 153,
      "È": 154,
      "É": 155,
      "Ê": 156,
      "Ë": 157,
      "Ì": 158,
      "Í": 159,
      "Î": 160,
      "Ï": 161,
      "Ð": 162,
      "Ñ": 163,
      "Ò": 164,
      "Ó": 165,
      "Ô": 166,
      "Õ": 167,
      "Ö": 168,
      "×": 169,
      "Ø": 170,
      "Ù": 171,
      "Ú": 172,
      "Û": 173,
      "Ü": 174,
      "Ý": 175,
      "Þ": 176,
      "ß": 177,
      "à": 178,
      "á": 179,
      "â": 180,
      "ã": 181,
      "ä": 182,
      "å": 183,
      "æ": 184,
      "ç": 185,
      "è": 186,
      "é": 187,
      "ê": 188,
      "ë": 189,
      "ì": 190,
      "í": 191,
      "î": 192,
      "ï": 193,
      "ð": 194,
      "ñ": 195,
      "ò": 196,
      "ó": 197,
      "ô": 198,
      "õ": 199,
      "ö": 200,
      "÷": 201,
      "ø": 202,
      "ù": 203,
      "ú": 204,
      "û": 205,
      "ü": 206,
      "ý": 207,
      "þ": 208,
      "ÿ": 209,
      "Ā": 210,
      "ā": 211,
      "Ă": 212,
      "ă": 213,
      "Ą": 214,
      "ą": 215,
      "Ć": 216,
      "ć": 217,
      "Ĉ": 218,
      "ĉ": 219,
      "Ċ": 220,
      "ċ": 221,
      "Č": 222,
      "č": 223,
      "Ď": 224,
      "ď": 225,
      "Đ": 226,
      "đ": 227,
      "Ē": 228,
      "ē": 229,
      "ĕ": 230,
      "Ė": 231,
      "ė": 232,
      "Ę": 233,
      "ę": 234,
      "Ě": 235,
      "ě": 236,
      "Ĝ": 237,
      "ĝ": 238,
      "Ğ": 239,
      "ğ": 240,
      "Ġ": 241,
      "ġ": 242,
      "Ģ": 243,
      "ģ": 244,
      "Ĥ": 245,
      "ĥ": 246,
      "Ħ": 247,
      "ħ": 248,
      "Ĩ": 249,
      "ĩ": 250,
      "Ī": 251,
      "ī": 252,
      "ĭ": 253,
      "Į": 254,
      "į": 255,
      "İ": 256,
      "ı": 257,
      "Ĵ": 258,
      "ĵ": 259,
      "Ķ": 260,
      "ķ": 261,
      "ĸ": 262,
      "Ĺ": 263,
      "ĺ": 264,
      "Ļ": 265,
      "ļ": 266,
      "Ľ": 267,
      "ľ": 268,
      "Ł": 269,
      "ł": 270,
      "Ń": 271,
      "ń": 272,
      "Ņ": 273,
      "ņ": 274,
      "Ň": 275,
      "ň": 276,
      "Ŋ": 277,
      "ŋ": 278,
      "Ō": 279,
      "ō": 280,
      "Ŏ": 281,
      "ŏ": 282,
      "Ő": 283,
      "ő": 284,
      "Œ": 285,
      "œ": 286,
      "Ŕ": 287,
      "ŕ": 288,
      "Ř": 289,
      "ř": 290,
      "Ś": 291,
      "ś": 292,
      "Ŝ": 293,
      "ŝ": 294,
      "Ş": 295,
      "ş": 296,
      "Š": 297,
      "š": 298,
      "Ţ": 299,
      "ţ": 300,
      "Ť": 301,
      "ť": 302,
      "Ŧ": 303,
      "ŧ": 304,
      "ũ": 305,
      "Ū": 306,
      "ū": 307,
      "Ŭ": 308,
      "ŭ": 309,
      "Ů": 310,
      "ů": 311,
      "Ű": 312,
      "ű": 313,
      "Ų": 314,
      "ų": 315,
      "Ŵ": 316,
      "ŵ": 317,
      "ŷ": 318,
      "Ÿ": 319,
      "Ź": 320,
      "ź": 321,
      "Ż": 322,
      "ż": 323,
      "Ž": 324,
      "ž": 325,
      "ƀ": 326,
      "Ƃ": 327,
      "Ƅ": 328,
      "Ɔ": 329,
      "ƈ": 330,
      "Ɖ": 331,
      "Ǝ": 332,
      "Ə": 333,
      "Ɛ": 334,
      "Ƒ": 335,
      "ƒ": 336,
      "Ɠ": 337,
      "ƕ": 338,
      "Ɩ": 339,
      "Ɨ": 340,
      "ƙ": 341,
      "ƚ": 342,
      "ƛ": 343,
      "ƞ": 344,
      "Ɵ": 345,
      "Ơ": 346,
      "ơ": 347,
      "ƥ": 348,
      "ƨ": 349,
      "Ʃ": 350,
      "ƫ": 351,
      "Ƭ": 352,
      "Ư": 353,
      "ư": 354,
      "Ƶ": 355,
      "Ʒ": 356,
      "Ƹ": 357,
      "ƹ": 358,
      "ƺ": 359,
      "ƻ": 360,
      "Ƽ": 361,
      "ƽ": 362,
      "ƾ": 363,
      "ƿ": 364,
      "ǀ": 365,
      "ǁ": 366,
      "ǂ": 367,
      "ǃ": 368,
      "ǎ": 369,
      "Ǐ": 370,
      "ǐ": 371,
      "ǒ": 372,
      "ǔ": 373,
      "ǖ": 374,
      "ǘ": 375,
      "ǚ": 376,
      "ǜ": 377,
      "ǝ": 378,
      "Ǟ": 379,
      "ǟ": 380,
      "ǡ": 381,
      "ǣ": 382,
      "Ǥ": 383,
      "ǥ": 384,
      "Ǧ": 385,
      "ǧ": 386,
      "Ǩ": 387,
      "ǩ": 388,
      "Ǫ": 389,
      "ǫ": 390,
      "Ǵ": 391,
      "ǵ": 392,
      "Ƿ": 393,
      "Ǻ": 394,
      "ǻ": 395,
      "Ǽ": 396,
      "ǽ": 397,
      "Ǿ": 398,
      "ǿ": 399,
      "Ȁ": 400,
      "ȁ": 401,
      "ȃ": 402,
      "Ȅ": 403,
      "ȅ": 404,
      "ȇ": 405,
      "Ȉ": 406,
      "ȉ": 407,
      "ȋ": 408,
      "ȏ": 409,
      "Ȕ": 410,
      "ȕ": 411,
      "Ș": 412,
      "ș": 413,
      "Ț": 414,
      "ț": 415,
      "Ȝ": 416,
      "ȝ": 417,
      "Ȟ": 418,
      "ȟ": 419,
      "Ȧ": 420,
      "ȧ": 421,
      "ȩ": 422,
      "ȫ": 423,
      "Ȯ": 424,
      "ȯ": 425,
      "Ȳ": 426,
      "ȳ": 427,
      "ȴ": 428,
      "Ⱥ": 429,
      "ȼ": 430,
      "Ƀ": 431,
      "Ʌ": 432,
      "Ɇ": 433,
      "ɉ": 434,
      "ɍ": 435,
      "ə": 436,
      "ɣ": 437,
      "ʹ": 438,
      "ʺ": 439,
      "ʻ": 440,
      "ʼ": 441,
      "ʽ": 442,
      "ʾ": 443,
      "ʿ": 444,
      "ˀ": 445,
      "ˁ": 446,
      "˂": 447,
      "˃": 448,
      "˄": 449,
      "˅": 450,
      "ˆ": 451,
      "ˇ": 452,
      "ˈ": 453,
      "ˉ": 454,
      "ˊ": 455,
      "ˋ": 456,
      "ˌ": 457,
      "ˍ": 458,
      "ˎ": 459,
      "ˏ": 460,
      "ː": 461,
      "ˑ": 462,
      "˗": 463,
      "ˮ": 464,
      "́": 465,
      "̃": 466,
      "̄": 467,
      "̅": 468,
      "̆": 469,
      "̇": 470,
      "̈": 471,
      "̊": 472,
      "̋": 473,
      "̧": 474,
      "̨": 475,
      "̳": 476,
      "Ω": 477,
      "μ": 478,
      "π": 479,
      "א": 480,
      "Ḁ": 481,
      "ḁ": 482,
      "Ḃ": 483,
      "Ḇ": 484,
      "Ḉ": 485,
      "ḉ": 486,
      "Ḋ": 487,
      "ḋ": 488,
      "Ḍ": 489,
      "ḍ": 490,
      "Ḏ": 491,
      "ḏ": 492,
      "Ḑ": 493,
      "ḑ": 494,
      "ḓ": 495,
      "ḕ": 496,
      "ḗ": 497,
      "ḙ": 498,
      "ḛ": 499,
      "Ḟ": 500,
      "ḡ": 501,
      "Ḥ": 502,
      "ḥ": 503,
      "Ḧ": 504,
      "ḧ": 505,
      "Ḩ": 506,
      "ḩ": 507,
      "Ḫ": 508,
      "ḫ": 509,
      "ḯ": 510,
      "Ḱ": 511,
      "ḱ": 512,
      "Ḳ": 513,
      "ḳ": 514,
      "ḵ": 515,
      "ḷ": 516,
      "ḻ": 517,
      "Ḿ": 518,
      "ḿ": 519,
      "Ṁ": 520,
      "ṁ": 521,
      "ṃ": 522,
      "Ṅ": 523,
      "ṅ": 524,
      "Ṇ": 525,
      "ṇ": 526,
      "Ṉ": 527,
      "ṉ": 528,
      "ṑ": 529,
      "ṓ": 530,
      "ṕ": 531,
      "Ṗ": 532,
      "ṗ": 533,
      "ṙ": 534,
      "Ṛ": 535,
      "ṛ": 536,
      "ṝ": 537,
      "Ṟ": 538,
      "ṟ": 539,
      "Ṡ": 540,
      "ṡ": 541,
      "Ṣ": 542,
      "ṣ": 543,
      "Ṧ": 544,
      "ṧ": 545,
      "Ṭ": 546,
      "ṭ": 547,
      "Ṯ": 548,
      "ṯ": 549,
      "ṿ": 550,
      "ẋ": 551,
      "Ẍ": 552,
      "ẍ": 553,
      "Ẓ": 554,
      "ẓ": 555,
      "Ẕ": 556,
      "ẕ": 557,
      "ẖ": 558,
      "ẗ": 559,
      "ẞ": 560,
      "Ạ": 561,
      "ạ": 562,
      "Ả": 563,
      "ả": 564,
      "Ấ": 565,
      "ấ": 566,
      "Ầ": 567,
      "ầ": 568,
      "Ẩ": 569,
      "ẩ": 570,
      "Ẫ": 571,
      "ẫ": 572,
      "Ậ": 573,
      "ậ": 574,
      "Ắ": 575,
      "ắ": 576,
      "Ằ": 577,
      "ằ": 578,
      "ẳ": 579,
      "ẵ": 580,
      "Ặ": 581,
      "ặ": 582,
      "Ẹ": 583,
      "ẹ": 584,
      "Ẻ": 585,
      "ẻ": 586,
      "Ẽ": 587,
      "ẽ": 588,
      "Ế": 589,
      "ế": 590,
      "Ề": 591,
      "ề": 592,
      "Ể": 593,
      "ể": 594,
      "Ễ": 595,
      "ễ": 596,
      "Ệ": 597,
      "ệ": 598,
      "Ỉ": 599,
      "ỉ": 600,
      "Ị": 601,
      "ị": 602,
      "Ọ": 603,
      "ọ": 604,
      "ỏ": 605,
      "Ố": 606,
      "ố": 607,
      "Ồ": 608,
      "ồ": 609,
      "Ổ": 610,
      "ổ": 611,
      "Ỗ": 612,
      "ỗ": 613,
      "Ộ": 614,
      "ộ": 615,
      "Ớ": 616,
      "ớ": 617,
      "Ờ": 618,
      "ờ": 619,
      "Ở": 620,
      "ở": 621,
      "ỡ": 622,
      "Ợ": 623,
      "ợ": 624,
      "Ụ": 625,
      "ụ": 626,
      "Ủ": 627,
      "ủ": 628,
      "Ứ": 629,
      "ứ": 630,
      "Ừ": 631,
      "ừ": 632,
      "ử": 633,
      "Ữ": 634,
      "ữ": 635,
      "Ự": 636,
      "ự": 637,
      "ỳ": 638,
      "Ỷ": 639,
      "ỷ": 640,
      "Ỹ": 641,
      "ỹ": 642,
      "Ỽ": 643,
      "ỽ": 644,
      "‐": 645,
      "‒": 646,
      "–": 647,
      "—": 648,
      "―": 649,
      "‖": 650,
      "‘": 651,
      "’": 652,
      "‚": 653,
      "‛": 654,
      "“": 655,
      "”": 656,
      "„": 657,
      "‟": 658,
      "†": 659,
      "‡": 660,
      "•": 661,
      "‣": 662,
      "‧": 663,
      "‪": 664,
      "‫": 665,
      "‬": 666,
      "‭": 667,
      "‰": 668,
      "‱": 669,
      "′": 670,
      "‸": 671,
      "‹": 672,
      "›": 673,
      "※": 674,
      "‽": 675,
      "‿": 676,
      "⁁": 677,
      "⁂": 678,
      "⁃": 679,
      "⁄": 680,
      "⁅": 681,
      "⁆": 682,
      "⁞": 683,
      "⁠": 684,
      "⁡": 685,
      "⁣": 686,
      "⁦": 687,
      "⁨": 688,
      "⁩": 689,
      "⁭": 690,
      "₠": 691,
      "₡": 692,
      "₣": 693,
      "₤": 694,
      "₦": 695,
      "₩": 696,
      "₪": 697,
      "₫": 698,
      "€": 699,
      "₭": 700,
      "₱": 701,
      "₴": 702,
      "₵": 703,
      "₹": 704,
      "₺": 705,
      "₽": 706,
      "₿": 707,
      "⃒": 708,
      "⃓": 709,
      "⃗": 710,
      "⃘": 711,
      "⃠": 712,
      "⃣": 713,
      "⃰": 714,
      "℔": 715,
      "℗": 716,
      "℞": 717,
      "℧": 718,
      "℮": 719,
      "←": 720,
      "↑": 721,
      "→": 722,
      "↓": 723,
      "↔": 724,
      "↕": 725,
      "↗": 726,
      "↘": 727,
      "↝": 728,
      "↞": 729,
      "↟": 730,
      "↠": 731,
      "↡": 732,
      "↤": 733,
      "↥": 734,
      "↦": 735,
      "↧": 736,
      "↨": 737,
      "↩": 738,
      "↪": 739,
      "↬": 740,
      "↮": 741,
      "↯": 742,
      "↲": 743,
      "↳": 744,
      "↴": 745,
      "↵": 746,
      "↶": 747,
      "↷": 748,
      "↹": 749,
      "↺": 750,
      "⇄": 751,
      "⇈": 752,
      "⇉": 753,
      "⇌": 754,
      "⇏": 755,
      "⇐": 756,
      "⇑": 757,
      "⇒": 758,
      "⇓": 759,
      "⇔": 760,
      "⇛": 761,
      "⇜": 762,
      "⇝": 763,
      "⇡": 764,
      "⇢": 765,
      "⇣": 766,
      "⇥": 767,
      "⇦": 768,
      "⇧": 769,
      "⇨": 770,
      "⇩": 771,
      "⇪": 772,
      "⇱": 773,
      "⇶": 774,
      "⇽": 775,
      "⇾": 776,
      "∀": 777,
      "∁": 778,
      "∂": 779,
      "∃": 780,
      "∅": 781,
      "∆": 782,
      "∇": 783,
      "∈": 784,
      "∉": 785,
      "∋": 786,
      "∎": 787,
      "∏": 788,
      "∑": 789,
      "−": 790,
      "∓": 791,
      "∕": 792,
      "∖": 793,
      "∗": 794,
      "∘": 795,
      "∙": 796,
      "√": 797,
      "∛": 798,
      "∜": 799,
      "∝": 800,
      "∞": 801,
      "∟": 802,
      "∠": 803,
      "∣": 804,
      "∤": 805,
      "∥": 806,
      "∧": 807,
      "∨": 808,
      "∩": 809,
      "∪": 810,
      "∫": 811,
      "∴": 812,
      "∵": 813,
      "∶": 814,
      "∻": 815,
      "∼": 816,
      "≅": 817,
      "≈": 818,
      "≔": 819,
      "≖": 820,
      "≙": 821,
      "≠": 822,
      "≡": 823,
      "≢": 824,
      "≤": 825,
      "≥": 826,
      "≦": 827,
      "≧": 828,
      "≪": 829,
      "≫": 830,
      "≯": 831,
      "≺": 832,
      "≻": 833,
      "⊂": 834,
      "⊃": 835,
      "⊆": 836,
      "⊕": 837,
      "⊗": 838,
      "⊙": 839,
      "⊝": 840,
      "⊞": 841,
      "⊡": 842,
      "⊢": 843,
      "⊥": 844,
      "⊨": 845,
      "⊰": 846,
      "⊱": 847,
      "⊲": 848,
      "⊳": 849,
      "⊻": 850,
      "⊽": 851,
      "⋀": 852,
      "⋁": 853,
      "⋅": 854,
      "⋆": 855,
      "⋇": 856,
      "⋘": 857,
      "⋙": 858,
      "⋮": 859,
      "⋯": 860,
      "⌀": 861,
      "⌂": 862,
      "⌃": 863,
      "⌈": 864,
      "⌉": 865,
      "⌊": 866,
      "⌋": 867,
      "⌐": 868,
      "⌒": 869,
      "⌕": 870,
      "⌘": 871,
      "⌚": 872,
      "⌛": 873,
      "⌢": 874,
      "⌣": 875,
      "⌤": 876,
      "⌥": 877,
      "⌲": 878,
      "⍟": 879,
      "⎄": 880,
      "⎜": 881,
      "⎟": 882,
      "⎢": 883,
      "⎥": 884,
      "⎧": 885,
      "⎨": 886,
      "⎩": 887,
      "⎪": 888,
      "⎮": 889,
      "⎯": 890,
      "⎷": 891,
      "⎼": 892,
      "⏎": 893,
      "⏏": 894,
      "⏐": 895,
      "⏚": 896,
      "⏤": 897,
      "⏩": 898,
      "⏬": 899,
      "⏰": 900,
      "⏲": 901,
      "⏳": 902,
      "␍": 903,
      "␣": 904,
      "⓫": 905,
      "⓬": 906,
      "⓭": 907,
      "⓮": 908,
      "⓯": 909,
      "⓰": 910,
      "⓱": 911,
      "⓿": 912,
      "─": 913,
      "━": 914,
      "│": 915,
      "┃": 916,
      "┌": 917,
      "┐": 918,
      "└": 919,
      "┘": 920,
      "├": 921,
      "┬": 922,
      "┼": 923,
      "╋": 924,
      "═": 925,
      "║": 926,
      "╔": 927,
      "╘": 928,
      "╙": 929,
      "╜": 930,
      "╝": 931,
      "╞": 932,
      "╠": 933,
      "╤": 934,
      "╥": 935,
      "╬": 936,
      "╭": 937,
      "╮": 938,
      "╰": 939,
      "╱": 940,
      "╳": 941,
      "▀": 942,
      "▂": 943,
      "▃": 944,
      "▄": 945,
      "▅": 946,
      "▆": 947,
      "▇": 948,
      "█": 949,
      "▌": 950,
      "▐": 951,
      "░": 952,
      "▒": 953,
      "▓": 954,
      "■": 955,
      "□": 956,
      "▢": 957,
      "▣": 958,
      "▦": 959,
      "▪": 960,
      "▫": 961,
      "▬": 962,
      "▭": 963,
      "▲": 964,
      "△": 965,
      "▴": 966,
      "▶": 967,
      "▷": 968,
      "▸": 969,
      "▹": 970,
      "►": 971,
      "▻": 972,
      "▼": 973,
      "▽": 974,
      "▾": 975,
      "▿": 976,
      "◀": 977,
      "◁": 978,
      "◂": 979,
      "◄": 980,
      "◅": 981,
      "◆": 982,
      "◇": 983,
      "◈": 984,
      "◉": 985,
      "◊": 986,
      "○": 987,
      "◎": 988,
      "●": 989,
      "◐": 990,
      "◑": 991,
      "◔": 992,
      "◕": 993,
      "◖": 994,
      "◗": 995,
      "◘": 996,
      "◙": 997,
      "◠": 998,
      "◡": 999,
      "◢": 1000,
      "◣": 1001,
      "◤": 1002,
      "◦": 1003,
      "◯": 1004,
      "◴": 1005,
      "◻": 1006,
      "◼": 1007,
      "◾": 1008,
      "☀": 1009,
      "☁": 1010,
      "☂": 1011,
      "☃": 1012,
      "☄": 1013,
      "★": 1014,
      "☆": 1015,
      "☇": 1016,
      "☈": 1017,
      "☉": 1018,
      "☊": 1019,
      "☋": 1020,
      "☍": 1021,
      "☎": 1022,
      "☐": 1023,
      "☑": 1024,
      "☒": 1025,
      "☔": 1026,
      "☕": 1027,
      "☘": 1028,
      "☚": 1029,
      "☛": 1030,
      "☜": 1031,
      "☝": 1032,
      "☞": 1033,
      "☟": 1034,
      "☠": 1035,
      "☡": 1036,
      "☢": 1037,
      "☣": 1038,
      "☥": 1039,
      "☧": 1040,
      "☪": 1041,
      "☭": 1042,
      "☮": 1043,
      "☯": 1044,
      "☰": 1045,
      "☹": 1046,
      "☺": 1047,
      "☻": 1048,
      "☼": 1049,
      "☽": 1050,
      "☾": 1051,
      "♀": 1052,
      "♁": 1053,
      "♂": 1054,
      "♄": 1055,
      "♆": 1056,
      "♈": 1057,
      "♉": 1058,
      "♊": 1059,
      "♋": 1060,
      "♌": 1061,
      "♍": 1062,
      "♏": 1063,
      "♐": 1064,
      "♑": 1065,
      "♒": 1066,
      "♓": 1067,
      "♔": 1068,
      "♕": 1069,
      "♖": 1070,
      "♗": 1071,
      "♘": 1072,
      "♙": 1073,
      "♚": 1074,
      "♛": 1075,
      "♞": 1076,
      "♟": 1077,
      "♠": 1078,
      "♡": 1079,
      "♢": 1080,
      "♣": 1081,
      "♤": 1082,
      "♥": 1083,
      "♦": 1084,
      "♧": 1085,
      "♨": 1086,
      "♩": 1087,
      "♪": 1088,
      "♫": 1089,
      "♬": 1090,
      "♭": 1091,
      "♮": 1092,
      "♯": 1093,
      "♰": 1094,
      "♺": 1095,
      "♻": 1096,
      "♾": 1097,
      "⚃": 1098,
      "⚄": 1099,
      "⚅": 1100,
      "⚇": 1101,
      "⚑": 1102,
      "⚒": 1103,
      "⚓": 1104,
      "⚔": 1105,
      "⚕": 1106,
      "⚖": 1107,
      "⚘": 1108,
      "⚙": 1109,
      "⚜": 1110,
      "⚠": 1111,
      "⚡": 1112,
      "⚥": 1113,
      "⚧": 1114,
      "⚪": 1115,
      "⚫": 1116,
      "⚬": 1117,
      "⚰": 1118,
      "⚱": 1119,
      "⚲": 1120,
      "⚽": 1121,
      "⚾": 1122,
      "⛄": 1123,
      "⛅": 1124,
      "⛆": 1125,
      "⛈": 1126,
      "⛏": 1127,
      "⛑": 1128,
      "⛔": 1129,
      "⛤": 1130,
      "⛥": 1131,
      "⛦": 1132,
      "⛧": 1133,
      "⛪": 1134,
      "⛮": 1135,
      "⛰": 1136,
      "⛱": 1137,
      "⛲": 1138,
      "⛳": 1139,
      "⛴": 1140,
      "⛵": 1141,
      "⛷": 1142,
      "⛸": 1143,
      "⛺": 1144,
      "⛻": 1145,
      "⛼": 1146,
      "⛽": 1147,
      "✀": 1148,
      "✁": 1149,
      "✂": 1150,
      "✃": 1151,
      "✄": 1152,
      "✅": 1153,
      "✆": 1154,
      "✈": 1155,
      "✉": 1156,
      "✊": 1157,
      "✋": 1158,
      "✌": 1159,
      "✍": 1160,
      "✎": 1161,
      "✏": 1162,
      "✐": 1163,
      "✒": 1164,
      "✓": 1165,
      "✔": 1166,
      "✕": 1167,
      "✖": 1168,
      "✗": 1169,
      "✘": 1170,
      "✚": 1171,
      "✛": 1172,
      "✝": 1173,
      "✞": 1174,
      "✡": 1175,
      "✢": 1176,
      "✤": 1177,
      "✥": 1178,
      "✦": 1179,
      "✧": 1180,
      "✨": 1181,
      "✩": 1182,
      "✪": 1183,
      "✫": 1184,
      "✬": 1185,
      "✭": 1186,
      "✮": 1187,
      "✯": 1188,
      "✰": 1189,
      "✱": 1190,
      "✲": 1191,
      "✳": 1192,
      "✴": 1193,
      "✵": 1194,
      "✶": 1195,
      "✷": 1196,
      "✸": 1197,
      "✹": 1198,
      "✺": 1199,
      "✻": 1200,
      "✼": 1201,
      "✽": 1202,
      "✾": 1203,
      "✿": 1204,
      "❀": 1205,
      "❁": 1206,
      "❂": 1207,
      "❃": 1208,
      "❄": 1209,
      "❅": 1210,
      "❆": 1211,
      "❇": 1212,
      "❈": 1213,
      "❉": 1214,
      "❊": 1215,
      "❋": 1216,
      "❌": 1217,
      "❍": 1218,
      "❎": 1219,
      "❏": 1220,
      "❐": 1221,
      "❑": 1222,
      "❒": 1223,
      "❓": 1224,
      "❔": 1225,
      "❕": 1226,
      "❖": 1227,
      "❗": 1228,
      "❘": 1229,
      "❙": 1230,
      "❚": 1231,
      "❝": 1232,
      "❞": 1233,
      "❟": 1234,
      "❣": 1235,
      "❤": 1236,
      "❥": 1237,
      "❦": 1238,
      "❧": 1239,
      "❪": 1240,
      "❫": 1241,
      "❬": 1242,
      "❭": 1243,
      "❮": 1244,
      "❯": 1245,
      "❱": 1246,
      "❶": 1247,
      "❷": 1248,
      "❸": 1249,
      "❹": 1250,
      "❺": 1251,
      "❻": 1252,
      "❼": 1253,
      "❽": 1254,
      "❾": 1255,
      "❿": 1256,
      "➀": 1257,
      "➁": 1258,
      "➂": 1259,
      "➃": 1260,
      "➄": 1261,
      "➅": 1262,
      "➆": 1263,
      "➇": 1264,
      "➈": 1265,
      "➉": 1266,
      "➊": 1267,
      "➋": 1268,
      "➌": 1269,
      "➍": 1270,
      "➎": 1271,
      "➏": 1272,
      "➐": 1273,
      "➑": 1274,
      "➒": 1275,
      "➓": 1276,
      "➔": 1277,
      "➕": 1278,
      "➖": 1279,
      "➙": 1280,
      "➚": 1281,
      "➜": 1282,
      "➝": 1283,
      "➞": 1284,
      "➟": 1285,
      "➠": 1286,
      "➡": 1287,
      "➢": 1288,
      "➣": 1289,
      "➤": 1290,
      "➥": 1291,
      "➧": 1292,
      "➨": 1293,
      "➩": 1294,
      "➪": 1295,
      "➫": 1296,
      "➬": 1297,
      "➭": 1298,
      "➯": 1299,
      "➰": 1300,
      "➲": 1301,
      "➳": 1302,
      "➵": 1303,
      "➸": 1304,
      "➺": 1305,
      "➻": 1306,
      "➼": 1307,
      "➽": 1308,
      "⟨": 1309,
      "⟩": 1310,
      "⟰": 1311,
      "⟱": 1312,
      "⟵": 1313,
      "⟶": 1314,
      "⤐": 1315,
      "⤙": 1316,
      "⤵": 1317,
      "⤷": 1318,
      "⤹": 1319,
      "⥽": 1320,
      "⦁": 1321,
      "⦕": 1322,
      "⦘": 1323,
      "⦧": 1324,
      "⦩": 1325,
      "⦾": 1326,
      "⦿": 1327,
      "⧉": 1328,
      "⧫": 1329,
      "⧸": 1330,
      "⨢": 1331,
      "⨯": 1332,
      "⩓": 1333,
      "⪯": 1334,
      "⫚": 1335,
      "⬅": 1336,
      "⬆": 1337,
      "⬇": 1338,
      "⬌": 1339,
      "⬛": 1340,
      "⬜": 1341,
      "⬡": 1342,
      "⬤": 1343,
      "⬩": 1344,
      "⭐": 1345,
      "⭕": 1346,
      "ⱥ": 1347,
      "Ɐ": 1348,
      "ⱱ": 1349,
      "ⱷ": 1350,
      "⸮": 1351,
      "⸸": 1352,
      "⸻": 1353,
      "〈": 1354,
      "〉": 1355,
      "ꜣ": 1356,
      "Ꝥ": 1357,
      "ꝥ": 1358,
      "꞉": 1359,
      "ꟷ": 1360,
      "🃏": 1361,
      "🅔": 1362,
      "🅕": 1363,
      "🅖": 1364,
      "🅗": 1365,
      "🅘": 1366,
      "🅛": 1367,
      "🅞": 1368,
      "🅡": 1369,
      "🅢": 1370,
      "🅣": 1371,
      "🅰": 1372,
      "🅿": 1373,
      "🆘": 1374,
      "🇦": 1375,
      "🇧": 1376,
      "🇨": 1377,
      "🇩": 1378,
      "🇪": 1379,
      "🇫": 1380,
      "🇬": 1381,
      "🇭": 1382,
      "🇮": 1383,
      "🇯": 1384,
      "🇰": 1385,
      "🇱": 1386,
      "🇲": 1387,
      "🇳": 1388,
      "🇴": 1389,
      "🇵": 1390,
      "🇷": 1391,
      "🇸": 1392,
      "🇹": 1393,
      "🇺": 1394,
      "🇻": 1395,
      "🇼": 1396,
      "🇽": 1397,
      "🇾": 1398,
      "🇿": 1399,
      "🌀": 1400,
      "🌂": 1401,
      "🌃": 1402,
      "🌄": 1403,
      "🌅": 1404,
      "🌆": 1405,
      "🌇": 1406,
      "🌈": 1407,
      "🌉": 1408,
      "🌊": 1409,
      "🌋": 1410,
      "🌌": 1411,
      "🌍": 1412,
      "🌎": 1413,
      "🌏": 1414,
      "🌑": 1415,
      "🌒": 1416,
      "🌓": 1417,
      "🌔": 1418,
      "🌕": 1419,
      "🌖": 1420,
      "🌗": 1421,
      "🌘": 1422,
      "🌙": 1423,
      "🌚": 1424,
      "🌛": 1425,
      "🌜": 1426,
      "🌝": 1427,
      "🌞": 1428,
      "🌟": 1429,
      "🌠": 1430,
      "🌡": 1431,
      "🌣": 1432,
      "🌤": 1433,
      "🌥": 1434,
      "🌦": 1435,
      "🌧": 1436,
      "🌨": 1437,
      "🌩": 1438,
      "🌪": 1439,
      "🌫": 1440,
      "🌬": 1441,
      "🌭": 1442,
      "🌮": 1443,
      "🌯": 1444,
      "🌰": 1445,
      "🌱": 1446,
      "🌲": 1447,
      "🌳": 1448,
      "🌴": 1449,
      "🌵": 1450,
      "🌶": 1451,
      "🌷": 1452,
      "🌸": 1453,
      "🌹": 1454,
      "🌺": 1455,
      "🌻": 1456,
      "🌼": 1457,
      "🌽": 1458,
      "🌾": 1459,
      "🌿": 1460,
      "🍀": 1461,
      "🍁": 1462,
      "🍂": 1463,
      "🍃": 1464,
      "🍄": 1465,
      "🍅": 1466,
      "🍆": 1467,
      "🍇": 1468,
      "🍈": 1469,
      "🍉": 1470,
      "🍊": 1471,
      "🍋": 1472,
      "🍌": 1473,
      "🍍": 1474,
      "🍎": 1475,
      "🍏": 1476,
      "🍐": 1477,
      "🍑": 1478,
      "🍒": 1479,
      "🍓": 1480,
      "🍔": 1481,
      "🍕": 1482,
      "🍖": 1483,
      "🍗": 1484,
      "🍙": 1485,
      "🍚": 1486,
      "🍛": 1487,
      "🍜": 1488,
      "🍝": 1489,
      "🍞": 1490,
      "🍟": 1491,
      "🍠": 1492,
      "🍡": 1493,
      "🍢": 1494,
      "🍣": 1495,
      "🍤": 1496,
      "🍥": 1497,
      "🍦": 1498,
      "🍧": 1499,
      "🍨": 1500,
      "🍩": 1501,
      "🍪": 1502,
      "🍫": 1503,
      "🍬": 1504,
      "🍭": 1505,
      "🍮": 1506,
      "🍯": 1507,
      "🍰": 1508,
      "🍱": 1509,
      "🍲": 1510,
      "🍳": 1511,
      "🍴": 1512,
      "🍵": 1513,
      "🍶": 1514,
      "🍷": 1515,
      "🍸": 1516,
      "🍹": 1517,
      "🍺": 1518,
      "🍻": 1519,
      "🍼": 1520,
      "🍽": 1521,
      "🍾": 1522,
      "🍿": 1523,
      "🎀": 1524,
      "🎁": 1525,
      "🎂": 1526,
      "🎃": 1527,
      "🎄": 1528,
      "🎅": 1529,
      "🎆": 1530,
      "🎇": 1531,
      "🎈": 1532,
      "🎉": 1533,
      "🎊": 1534,
      "🎋": 1535,
      "🎌": 1536,
      "🎍": 1537,
      "🎎": 1538,
      "🎐": 1539,
      "🎑": 1540,
      "🎒": 1541,
      "🎓": 1542,
      "🎖": 1543,
      "🎗": 1544,
      "🎙": 1545,
      "🎞": 1546,
      "🎟": 1547,
      "🎠": 1548,
      "🎡": 1549,
      "🎢": 1550,
      "🎣": 1551,
      "🎤": 1552,
      "🎥": 1553,
      "🎦": 1554,
      "🎧": 1555,
      "🎨": 1556,
      "🎩": 1557,
      "🎪": 1558,
      "🎬": 1559,
      "🎭": 1560,
      "🎮": 1561,
      "🎯": 1562,
      "🎰": 1563,
      "🎱": 1564,
      "🎲": 1565,
      "🎳": 1566,
      "🎵": 1567,
      "🎶": 1568,
      "🎷": 1569,
      "🎸": 1570,
      "🎹": 1571,
      "🎺": 1572,
      "🎻": 1573,
      "🎼": 1574,
      "🎽": 1575,
      "🎾": 1576,
      "🎿": 1577,
      "🏀": 1578,
      "🏁": 1579,
      "🏂": 1580,
      "🏃": 1581,
      "🏄": 1582,
      "🏅": 1583,
      "🏆": 1584,
      "🏇": 1585,
      "🏈": 1586,
      "🏊": 1587,
      "🏋": 1588,
      "🏌": 1589,
      "🏍": 1590,
      "🏎": 1591,
      "🏐": 1592,
      "🏑": 1593,
      "🏒": 1594,
      "🏓": 1595,
      "🏔": 1596,
      "🏕": 1597,
      "🏖": 1598,
      "🏗": 1599,
      "🏘": 1600,
      "🏙": 1601,
      "🏚": 1602,
      "🏛": 1603,
      "🏜": 1604,
      "🏝": 1605,
      "🏞": 1606,
      "🏟": 1607,
      "🏠": 1608,
      "🏡": 1609,
      "🏢": 1610,
      "🏣": 1611,
      "🏥": 1612,
      "🏨": 1613,
      "🏫": 1614,
      "🏰": 1615,
      "🏳": 1616,
      "🏵": 1617,
      "🏷": 1618,
      "🏸": 1619,
      "🏹": 1620,
      "🏻": 1621,
      "🏼": 1622,
      "🏽": 1623,
      "🏾": 1624,
      "🏿": 1625,
      "🐀": 1626,
      "🐁": 1627,
      "🐂": 1628,
      "🐃": 1629,
      "🐄": 1630,
      "🐅": 1631,
      "🐆": 1632,
      "🐇": 1633,
      "🐈": 1634,
      "🐉": 1635,
      "🐊": 1636,
      "🐋": 1637,
      "🐌": 1638,
      "🐍": 1639,
      "🐎": 1640,
      "🐏": 1641,
      "🐐": 1642,
      "🐑": 1643,
      "🐒": 1644,
      "🐓": 1645,
      "🐔": 1646,
      "🐕": 1647,
      "🐖": 1648,
      "🐗": 1649,
      "🐘": 1650,
      "🐙": 1651,
      "🐚": 1652,
      "🐛": 1653,
      "🐜": 1654,
      "🐝": 1655,
      "🐞": 1656,
      "🐟": 1657,
      "🐠": 1658,
      "🐡": 1659,
      "🐢": 1660,
      "🐣": 1661,
      "🐤": 1662,
      "🐥": 1663,
      "🐦": 1664,
      "🐧": 1665,
      "🐨": 1666,
      "🐩": 1667,
      "🐫": 1668,
      "🐬": 1669,
      "🐭": 1670,
      "🐮": 1671,
      "🐯": 1672,
      "🐰": 1673,
      "🐱": 1674,
      "🐲": 1675,
      "🐳": 1676,
      "🐴": 1677,
      "🐵": 1678,
      "🐶": 1679,
      "🐷": 1680,
      "🐸": 1681,
      "🐹": 1682,
      "🐺": 1683,
      "🐻": 1684,
      "🐼": 1685,
      "🐽": 1686,
      "🐾": 1687,
      "🐿": 1688,
      "👀": 1689,
      "👁": 1690,
      "👂": 1691,
      "👃": 1692,
      "👄": 1693,
      "👅": 1694,
      "👆": 1695,
      "👇": 1696,
      "👈": 1697,
      "👉": 1698,
      "👊": 1699,
      "👋": 1700,
      "👌": 1701,
      "👍": 1702,
      "👎": 1703,
      "👏": 1704,
      "👐": 1705,
      "👑": 1706,
      "👒": 1707,
      "👓": 1708,
      "👔": 1709,
      "👕": 1710,
      "👖": 1711,
      "👗": 1712,
      "👘": 1713,
      "👙": 1714,
      "👚": 1715,
      "👛": 1716,
      "👜": 1717,
      "👞": 1718,
      "👟": 1719,
      "👠": 1720,
      "👡": 1721,
      "👢": 1722,
      "👣": 1723,
      "👥": 1724,
      "👦": 1725,
      "👧": 1726,
      "👨": 1727,
      "👩": 1728,
      "👪": 1729,
      "👫": 1730,
      "👬": 1731,
      "👭": 1732,
      "👮": 1733,
      "👯": 1734,
      "👰": 1735,
      "👱": 1736,
      "👳": 1737,
      "👴": 1738,
      "👵": 1739,
      "👶": 1740,
      "👷": 1741,
      "👸": 1742,
      "👹": 1743,
      "👺": 1744,
      "👻": 1745,
      "👼": 1746,
      "👽": 1747,
      "👾": 1748,
      "👿": 1749,
      "💀": 1750,
      "💁": 1751,
      "💂": 1752,
      "💃": 1753,
      "💄": 1754,
      "💅": 1755,
      "💆": 1756,
      "💇": 1757,
      "💈": 1758,
      "💉": 1759,
      "💊": 1760,
      "💋": 1761,
      "💌": 1762,
      "💍": 1763,
      "💎": 1764,
      "💏": 1765,
      "💐": 1766,
      "💑": 1767,
      "💒": 1768,
      "💓": 1769,
      "💔": 1770,
      "💕": 1771,
      "💖": 1772,
      "💗": 1773,
      "💘": 1774,
      "💙": 1775,
      "💚": 1776,
      "💛": 1777,
      "💜": 1778,
      "💝": 1779,
      "💞": 1780,
      "💟": 1781,
      "💠": 1782,
      "💡": 1783,
      "💣": 1784,
      "💤": 1785,
      "💥": 1786,
      "💦": 1787,
      "💧": 1788,
      "💨": 1789,
      "💩": 1790,
      "💪": 1791,
      "💫": 1792,
      "💬": 1793,
      "💭": 1794,
      "💯": 1795,
      "💰": 1796,
      "💱": 1797,
      "💲": 1798,
      "💳": 1799,
      "💴": 1800,
      "💵": 1801,
      "💶": 1802,
      "💷": 1803,
      "💸": 1804,
      "💺": 1805,
      "💻": 1806,
      "💼": 1807,
      "💽": 1808,
      "💾": 1809,
      "💿": 1810,
      "📀": 1811,
      "📃": 1812,
      "📄": 1813,
      "📅": 1814,
      "📆": 1815,
      "📈": 1816,
      "📉": 1817,
      "📊": 1818,
      "📌": 1819,
      "📍": 1820,
      "📎": 1821,
      "📏": 1822,
      "📐": 1823,
      "📒": 1824,
      "📓": 1825,
      "📔": 1826,
      "📕": 1827,
      "📖": 1828,
      "📗": 1829,
      "📘": 1830,
      "📙": 1831,
      "📚": 1832,
      "📜": 1833,
      "📝": 1834,
      "📞": 1835,
      "📠": 1836,
      "📢": 1837,
      "📣": 1838,
      "📦": 1839,
      "📧": 1840,
      "📨": 1841,
      "📩": 1842,
      "📪": 1843,
      "📫": 1844,
      "📬": 1845,
      "📮": 1846,
      "📯": 1847,
      "📰": 1848,
      "📱": 1849,
      "📲": 1850,
      "📳": 1851,
      "📷": 1852,
      "📸": 1853,
      "📹": 1854,
      "📺": 1855,
      "📻": 1856,
      "📼": 1857,
      "📽": 1858,
      "📿": 1859,
      "🔀": 1860,
      "🔄": 1861,
      "🔅": 1862,
      "🔆": 1863,
      "🔈": 1864,
      "🔉": 1865,
      "🔊": 1866,
      "🔋": 1867,
      "🔌": 1868,
      "🔍": 1869,
      "🔎": 1870,
      "🔑": 1871,
      "🔔": 1872,
      "🔗": 1873,
      "🔘": 1874,
      "🔙": 1875,
      "🔚": 1876,
      "🔛": 1877,
      "🔜": 1878,
      "🔝": 1879,
      "🔞": 1880,
      "🔟": 1881,
      "🔥": 1882,
      "🔦": 1883,
      "🔧": 1884,
      "🔨": 1885,
      "🔩": 1886,
      "🔪": 1887,
      "🔫": 1888,
      "🔬": 1889,
      "🔭": 1890,
      "🔮": 1891,
      "🔰": 1892,
      "🔱": 1893,
      "🔴": 1894,
      "🔵": 1895,
      "🔶": 1896,
      "🔷": 1897,
      "🔸": 1898,
      "🔹": 1899,
      "🔺": 1900,
      "🔻": 1901,
      "🔼": 1902,
      "🔽": 1903,
      "🕉": 1904,
      "🕊": 1905,
      "🕌": 1906,
      "🕍": 1907,
      "🕎": 1908,
      "🕐": 1909,
      "🕑": 1910,
      "🕒": 1911,
      "🕔": 1912,
      "🕕": 1913,
      "🕗": 1914,
      "🕘": 1915,
      "🕙": 1916,
      "🕚": 1917,
      "🕛": 1918,
      "🕯": 1919,
      "🕴": 1920,
      "🕵": 1921,
      "🕶": 1922,
      "🕷": 1923,
      "🕸": 1924,
      "🕺": 1925,
      "🖇": 1926,
      "🖊": 1927,
      "🖋": 1928,
      "🖌": 1929,
      "🖍": 1930,
      "🖐": 1931,
      "🖑": 1932,
      "🖒": 1933,
      "🖓": 1934,
      "🖕": 1935,
      "🖖": 1936,
      "🖤": 1937,
      "🖥": 1938,
      "🖨": 1939,
      "🖼": 1940,
      "🗑": 1941,
      "🗝": 1942,
      "🗞": 1943,
      "🗡": 1944,
      "🗣": 1945,
      "🗯": 1946,
      "🗺": 1947,
      "🗻": 1948,
      "🗼": 1949,
      "🗽": 1950,
      "🗿": 1951,
      "😀": 1952,
      "😁": 1953,
      "😂": 1954,
      "😃": 1955,
      "😄": 1956,
      "😅": 1957,
      "😆": 1958,
      "😇": 1959,
      "😈": 1960,
      "😉": 1961,
      "😊": 1962,
      "😋": 1963,
      "😌": 1964,
      "😍": 1965,
      "😎": 1966,
      "😏": 1967,
      "😐": 1968,
      "😑": 1969,
      "😒": 1970,
      "😓": 1971,
      "😔": 1972,
      "😕": 1973,
      "😖": 1974,
      "😗": 1975,
      "😘": 1976,
      "😙": 1977,
      "😚": 1978,
      "😛": 1979,
      "😜": 1980,
      "😝": 1981,
      "😞": 1982,
      "😟": 1983,
      "😠": 1984,
      "😡": 1985,
      "😢": 1986,
      "😣": 1987,
      "😤": 1988,
      "😥": 1989,
      "😦": 1990,
      "😧": 1991,
      "😨": 1992,
      "😩": 1993,
      "😪": 1994,
      "😫": 1995,
      "😬": 1996,
      "😭": 1997,
      "😮": 1998,
      "😯": 1999,
      "😰": 2000,
      "😱": 2001,
      "😲": 2002,
      "😳": 2003,
      "😴": 2004,
      "😵": 2005,
      "😶": 2006,
      "😷": 2007,
      "😸": 2008,
      "😹": 2009,
      "😺": 2010,
      "😻": 2011,
      "😼": 2012,
      "😽": 2013,
      "😾": 2014,
      "😿": 2015,
      "🙀": 2016,
      "🙁": 2017,
      "🙂": 2018,
      "🙃": 2019,
      "🙄": 2020,
      "🙅": 2021,
      "🙆": 2022,
      "🙇": 2023,
      "🙈": 2024,
      "🙉": 2025,
      "🙊": 2026,
      "🙋": 2027,
      "🙌": 2028,
      "🙍": 2029,
      "🙎": 2030,
      "🙏": 2031,
      "🚀": 2032,
      "🚁": 2033,
      "🚂": 2034,
      "🚃": 2035,
      "🚄": 2036,
      "🚅": 2037,
      "🚆": 2038,
      "🚇": 2039,
      "🚈": 2040,
      "🚉": 2041,
      "🚋": 2042,
      "🚌": 2043,
      "🚍": 2044,
      "🚎": 2045,
      "🚐": 2046,
      "🚑": 2047,
      "🚒": 2048,
      "🚓": 2049,
      "🚔": 2050,
      "🚕": 2051,
      "🚖": 2052,
      "🚗": 2053,
      "🚘": 2054,
      "🚙": 2055,
      "🚚": 2056,
      "🚛": 2057,
      "🚜": 2058,
      "🚞": 2059,
      "🚢": 2060,
      "🚣": 2061,
      "🚤": 2062,
      "🚦": 2063,
      "🚧": 2064,
      "🚨": 2065,
      "🚩": 2066,
      "🚪": 2067,
      "🚫": 2068,
      "🚬": 2069,
      "🚰": 2070,
      "🚲": 2071,
      "🚳": 2072,
      "🚴": 2073,
      "🚵": 2074,
      "🚶": 2075,
      "🚺": 2076,
      "🚼": 2077,
      "🚽": 2078,
      "🚾": 2079,
      "🚿": 2080,
      "🛀": 2081,
      "🛁": 2082,
      "🛆": 2083,
      "🛋": 2084,
      "🛌": 2085,
      "🛍": 2086,
      "🛏": 2087,
      "🛑": 2088,
      "🛒": 2089,
      "🛠": 2090,
      "🛡": 2091,
      "🛢": 2092,
      "🛣": 2093,
      "🛥": 2094,
      "🛩": 2095,
      "🛫": 2096,
      "🛬": 2097,
      "🛳": 2098,
      "🛵": 2099,
      "🛶": 2100,
      "🛸": 2101,
      "🜐": 2102,
      "🡕": 2103,
      "🤐": 2104,
      "🤑": 2105,
      "🤒": 2106,
      "🤓": 2107,
      "🤔": 2108,
      "🤕": 2109,
      "🤖": 2110,
      "🤗": 2111,
      "🤘": 2112,
      "🤙": 2113,
      "🤚": 2114,
      "🤛": 2115,
      "🤜": 2116,
      "🤝": 2117,
      "🤞": 2118,
      "🤟": 2119,
      "🤠": 2120,
      "🤡": 2121,
      "🤢": 2122,
      "🤣": 2123,
      "🤤": 2124,
      "🤥": 2125,
      "🤦": 2126,
      "🤧": 2127,
      "🤨": 2128,
      "🤩": 2129,
      "🤪": 2130,
      "🤫": 2131,
      "🤬": 2132,
      "🤭": 2133,
      "🤮": 2134,
      "🤯": 2135,
      "🤰": 2136,
      "🤱": 2137,
      "🤲": 2138,
      "🤳": 2139,
      "🤴": 2140,
      "🤵": 2141,
      "🤶": 2142,
      "🤷": 2143,
      "🤸": 2144,
      "🥀": 2145,
      "🥁": 2146,
      "🥂": 2147,
      "🥃": 2148,
      "🥄": 2149,
      "🥅": 2150,
      "🥇": 2151,
      "🥈": 2152,
      "🥉": 2153,
      "🥊": 2154,
      "🥋": 2155,
      "🥌": 2156,
      "🥐": 2157,
      "🥑": 2158,
      "🥒": 2159,
      "🥓": 2160,
      "🥔": 2161,
      "🥕": 2162,
      "🥖": 2163,
      "🥗": 2164,
      "🥘": 2165,
      "🥙": 2166,
      "🥚": 2167,
      "🥛": 2168,
      "🥜": 2169,
      "🥝": 2170,
      "🥞": 2171,
      "🥟": 2172,
      "🥡": 2173,
      "🥢": 2174,
      "🥣": 2175,
      "🥤": 2176,
      "🥥": 2177,
      "🥦": 2178,
      "🥧": 2179,
      "🥨": 2180,
      "🥩": 2181,
      "🥪": 2182,
      "🥫": 2183,
      "🥬": 2184,
      "🥭": 2185,
      "🥰": 2186,
      "🥳": 2187,
      "🥴": 2188,
      "🥶": 2189,
      "🥺": 2190,
      "🥾": 2191,
      "🦀": 2192,
      "🦁": 2193,
      "🦂": 2194,
      "🦃": 2195,
      "🦄": 2196,
      "🦅": 2197,
      "🦆": 2198,
      "🦇": 2199,
      "🦈": 2200,
      "🦉": 2201,
      "🦊": 2202,
      "🦋": 2203,
      "🦌": 2204,
      "🦍": 2205,
      "🦎": 2206,
      "🦏": 2207,
      "🦐": 2208,
      "🦑": 2209,
      "🦒": 2210,
      "🦓": 2211,
      "🦔": 2212,
      "🦕": 2213,
      "🦖": 2214,
      "🦗": 2215,
      "🦰": 2216,
      "🧀": 2217,
      "🧐": 2218,
      "🧒": 2219,
      "🧓": 2220,
      "🧖": 2221,
      "🧙": 2222,
      "🧚": 2223,
      "🧠": 2224,
      "🧡": 2225,
      "🧢": 2226,
      "🧣": 2227,
      "🧤": 2228,
      "🧦": 2229,
      "🧶": 2230,
      "##a": 2231,
      "##k": 2232,
      "##t": 2233,
      "##h": 2234,
      "##i": 2235,
      "##s": 2236,
      "##o": 2237,
      "##r": 2238,
      "##Ã": 2239,
      "##¤": 2240,
      "##e": 2241,
      "##y": 2242,
      "##n": 2243,
      "##d": 2244,
      "##u": 2245,
      "##v": 2246,
      "##m": 2247,
      "##x": 2248,
      "##p": 2249,
      "##f": 2250,
      "##ä": 2251,
      "##ö": 2252,
      "##l": 2253,
      "##g": 2254,
      "##b": 2255,
      "##j": 2256,
      "##c": 2257,
      "##­": 2258,
      "##å": 2259,
      "##D": 2260,
      "##👍": 2261,
      "##q": 2262,
      "##M": 2263,
      "##w": 2264,
      "##7": 2265,
      "##ú": 2266,
      "##P": 2267,
      "##ü": 2268,
      "##L": 2269,
      "##A": 2270,
      "##K": 2271,
      "##T": 2272,
      "##G": 2273,
      "##R": 2274,
      "##I": 2275,
      "##S": 2276,
      "##C": 2277,
      "##U": 2278,
      "##E": 2279,
      "##N": 2280,
      "##B": 2281,
      "##J": 2282,
      "##Ö": 2283,
      "##F": 2284,
      "##O": 2285,
      "##z": 2286,
      "##X": 2287,
      "##Y": 2288,
      "##á": 2289,
      "##H": 2290,
      "##💙": 2291,
      "##é": 2292,
      "##8": 2293,
      "##W": 2294,
      "##Q": 2295,
      "##ô": 2296,
      "##ā": 2297,
      "##V": 2298,
      "##♡": 2299,
      "##4": 2300,
      "##¥": 2301,
      "##9": 2302,
      "##2": 2303,
      "##1": 2304,
      "##Ä": 2305,
      "##æ": 2306,
      "##ō": 2307,
      "##3": 2308,
      "##ï": 2309,
      "##Å": 2310,
      "##Z": 2311,
      "##š": 2312,
      "##😖": 2313,
      "##💕": 2314,
      "##0": 2315,
      "##č": 2316,
      "##ó": 2317,
      "##ū": 2318,
      "##õ": 2319,
      "##6": 2320,
      "##5": 2321,
      "##": 2322,
      "##ʹ": 2323,
      "##ł": 2324,
      "##¬": 2325,
      "##ž": 2326,
      "##í": 2327,
      "##®": 2328,
      "##ī": 2329,
      "##ð": 2330,
      "##è": 2331,
      "##ń": 2332,
      "##🍁": 2333,
      "##🍃": 2334,
      "##👏": 2335,
      "##🏻": 2336,
      "##👌": 2337,
      "##ø": 2338,
      "##−": 2339,
      "##â": 2340,
      "##û": 2341,
      "##Ń": 2342,
      "##ş": 2343,
      "##∨": 2344,
      "##î": 2345,
      "##": 2346,
      "##ç": 2347,
      "##👭": 2348,
      "##👬": 2349,
      "##♥": 2350,
      "##😍": 2351,
      "##ř": 2352,
      "##ë": 2353,
      "##✨": 2354,
      "##É": 2355,
      "##": 2356,
      "##ă": 2357,
      "##ã": 2358,
      "##❤": 2359,
      "##": 2360,
      "##ć": 2361,
      "##😊": 2362,
      "##ĺ": 2363,
      "##ĩ": 2364,
      "##ộ": 2365,
      "##✓": 2366,
      "##ę": 2367,
      "##ß": 2368,
      "##ı": 2369,
      "##🙌": 2370,
      "##😂": 2371,
      "##ñ": 2372,
      "##‭": 2373,
      "##": 2374,
      "##ý": 2375,
      "##🎗": 2376,
      "##Á": 2377,
      "##à": 2378,
      "##đ": 2379,
      "##ś": 2380,
      "##😅": 2381,
      "##þ": 2382,
      "##🤗": 2383,
      "##○": 2384,
      "##Š": 2385,
      "##Â": 2386,
      "##": 2387,
      "##Ø": 2388,
      "##Ü": 2389,
      "##ứ": 2390,
      "##ē": 2391,
      "##ğ": 2392,
      "##ņ": 2393,
      "##€": 2394,
      "##💍": 2395,
      "##ě": 2396,
      "##😃": 2397,
      "##ą": 2398,
      "##ề": 2399,
      "##": 2400,
      "##😎": 2401,
      "##─": 2402,
      "##ê": 2403,
      "##💛": 2404,
      "##🐤": 2405,
      "##🐥": 2406,
      "##ŭ": 2407,
      "##👊": 2408,
      "##🏽": 2409,
      "##ė": 2410,
      "##😘": 2411,
      "##💗": 2412,
      "##💖": 2413,
      "##🕷": 2414,
      "##🍹": 2415,
      "##ạ": 2416,
      "##😉": 2417,
      "##ŏ": 2418,
      "##Ó": 2419,
      "##ṟ": 2420,
      "##ĉ": 2421,
      "##💓": 2422,
      "##🏼": 2423,
      "##ų": 2424,
      "##©": 2425,
      "##🙃": 2426,
      "##👆": 2427,
      "##🙅": 2428,
      "##💋": 2429,
      "##ň": 2430,
      "##⚠": 2431,
      "##ș": 2432,
      "##μ": 2433,
      "##💞": 2434,
      "##È": 2435,
      "##": 2436,
      "##🙈": 2437,
      "##ů": 2438,
      "##": 2439,
      "##ż": 2440,
      "##ˎ": 2441,
      "##ṣ": 2442,
      "##🤣": 2443,
      "##😁": 2444,
      "##👇": 2445,
      "##œ": 2446,
      "##ò": 2447,
      "##Ú": 2448,
      "##≥": 2449,
      "##🌞": 2450,
      "##😄": 2451,
      "##ẕ": 2452,
      "##😬": 2453,
      "##♀": 2454,
      "##ù": 2455,
      "##Ă": 2456,
      "##×": 2457,
      "##😨": 2458,
      "##İ": 2459,
      "##▻": 2460,
      "##": 2461,
      "##😱": 2462,
      "##°": 2463,
      "##💃": 2464,
      "##✌": 2465,
      "##₩": 2466,
      "##↓": 2467,
      "##Õ": 2468,
      "##😋": 2469,
      "##‬": 2470,
      "##🙄": 2471,
      "##😥": 2472,
      "##😀": 2473,
      "##ő": 2474,
      "##☺": 2475,
      "##🚗": 2476,
      "##ļ": 2477,
      "##ķ": 2478,
      "##ì": 2479,
      "##😫": 2480,
      "##🙁": 2481,
      "##☹": 2482,
      "##😢": 2483,
      "##ţ": 2484,
      "##ƒ": 2485,
      "##🌈": 2486,
      "##🤔": 2487,
      "##Č": 2488,
      "##": 2489,
      "##🌸": 2490,
      "##Ą": 2491,
      "##🙏": 2492,
      "##⁄": 2493,
      "##ț": 2494,
      "##⤙": 2495,
      "##◎": 2496,
      "##ḑ": 2497,
      "##Í": 2498,
      "##Ë": 2499,
      "##🌄": 2500,
      "##🥜": 2501,
      "##Î": 2502,
      "##": 2503,
      "##🚲": 2504,
      "##ḩ": 2505,
      "##∅": 2506,
      "##😶": 2507,
      "##😕": 2508,
      "##🌹": 2509,
      "##👼": 2510,
      "##😜": 2511,
      "##ệ": 2512,
      "##ṉ": 2513,
      "##ǫ": 2514,
      "##🤬": 2515,
      "##💩": 2516,
      "##": 2517,
      "##": 2518,
      "##👿": 2519,
      "##ÿ": 2520,
      "##😆": 2521,
      "##🐮": 2522,
      "##ʻ": 2523,
      "##💪": 2524,
      "##ģ": 2525,
      "##ọ": 2526,
      "##▸": 2527,
      "##→": 2528,
      "##ḻ": 2529,
      "##Ç": 2530,
      "##🍩": 2531,
      "##🐄": 2532,
      "##ṭ": 2533,
      "##⛽": 2534,
      "##Ï": 2535,
      "##🐯": 2536,
      "##💜": 2537,
      "##🎅": 2538,
      "##🎄": 2539,
      "##Ľ": 2540,
      "##¦": 2541,
      "##£": 2542,
      "##🎉": 2543,
      "##ť": 2544,
      "##ź": 2545,
      "##💴": 2546,
      "##💸": 2547,
      "##🤪": 2548,
      "##😳": 2549,
      "##ȁ": 2550,
      "##Ñ": 2551,
      "##": 2552,
      "##☻": 2553,
      "##😝": 2554,
      "##🔬": 2555,
      "##😌": 2556,
      "##👎": 2557,
      "##ũ": 2558,
      "##🎶": 2559,
      "##Ż": 2560,
      "##Æ": 2561,
      "##🌟": 2562,
      "##ể": 2563,
      "##ċ": 2564,
      "##ʺ": 2565,
      "##🚨": 2566,
      "##ḥ": 2567,
      "##💦": 2568,
      "##💧": 2569,
      "##ổ": 2570,
      "##ớ": 2571,
      "##🐒": 2572,
      "##±": 2573,
      "##💘": 2574,
      "##∂": 2575,
      "##ű": 2576,
      "##😰": 2577,
      "##🎈": 2578,
      "##💚": 2579,
      "##🎂": 2580,
      "##😭": 2581,
      "##❣": 2582,
      "##‪": 2583,
      "##⋅": 2584,
      "##↵": 2585,
      "##💨": 2586,
      "##🤑": 2587,
      "##😇": 2588,
      "##🎷": 2589,
      "##Ê": 2590,
      "##🏢": 2591,
      "##🤳": 2592,
      "##ṇ": 2593,
      "##ḍ": 2594,
      "##😲": 2595,
      "##🌲": 2596,
      "##😩": 2597,
      "##📚": 2598,
      "##Ā": 2599,
      "##🌚": 2600,
      "##😛": 2601,
      "##🥋": 2602,
      "##🍔": 2603,
      "##♣": 2604,
      "##♠": 2605,
      "##√": 2606,
      "##¢": 2607,
      "##ŋ": 2608,
      "##ở": 2609,
      "##≈": 2610,
      "##🍂": 2611,
      "##ˋ": 2612,
      "##Ấ": 2613,
      "##ḏ": 2614,
      "##Ô": 2615,
      "##🎿": 2616,
      "##❄": 2617,
      "##👓": 2618,
      "##🏾": 2619,
      "##ṯ": 2620,
      "##ŕ": 2621,
      "##🤢": 2622,
      "##🙂": 2623,
      "##▶": 2624,
      "##★": 2625,
      "##♤": 2626,
      "##♪": 2627,
      "##🇸": 2628,
      "##🇪": 2629,
      "##🧡": 2630,
      "##ġ": 2631,
      "##🚙": 2632,
      "##🤩": 2633,
      "##🙊": 2634,
      "##🦄": 2635,
      "##🐕": 2636,
      "##ố": 2637,
      "##│": 2638,
      "##ẖ": 2639,
      "##ǐ": 2640,
      "##😻": 2641,
      "##😴": 2642,
      "##ľ": 2643,
      "##ṅ": 2644,
      "##🍺": 2645,
      "##🍸": 2646,
      "##►": 2647,
      "##🌱": 2648,
      "##🍠": 2649,
      "##🍎": 2650,
      "##🌽": 2651,
      "##⌛": 2652,
      "##ư": 2653,
      "##": 2654,
      "##⁡": 2655,
      "##👩": 2656,
      "##🛑": 2657,
      "##🚧": 2658,
      "##🚦": 2659,
      "##🛣": 2660,
      "##À": 2661,
      "##🌿": 2662,
      "##🍀": 2663,
      "##📸": 2664,
      "##ấ": 2665,
      "##ữ": 2666,
      "##🌻": 2667,
      "##💫": 2668,
      "##ặ": 2669,
      "##🤓": 2670,
      "##÷": 2671,
      "##": 2672,
      "##Đ": 2673,
      "##∧": 2674,
      "##😷": 2675,
      "##Þ": 2676,
      "##🐴": 2677,
      "##▽": 2678,
      "##😒": 2679,
      "##😟": 2680,
      "##😯": 2681,
      "##🙉": 2682,
      "##😼": 2683,
      "##😿": 2684,
      "##😐": 2685,
      "##🍕": 2686,
      "##🍦": 2687,
      "##🍫": 2688,
      "##👑": 2689,
      "##😙": 2690,
      "##👯": 2691,
      "##": 2692,
      "##□": 2693,
      "##": 2694,
      "##ḯ": 2695,
      "##🐈": 2696,
      "##⭐": 2697,
      "##🚶": 2698,
      "##🍪": 2699,
      "##Ỉ": 2700,
      "##♦": 2701,
      "##🍓": 2702,
      "##▾": 2703,
      "##ˈ": 2704,
      "##●": 2705,
      "##ˆ": 2706,
      "##🌾": 2707,
      "##∣": 2708,
      "##⚽": 2709,
      "##≤": 2710,
      "##👋": 2711,
      "##💰": 2712,
      "##🌺": 2713,
      "##ả": 2714,
      "##ǿ": 2715,
      "##▲": 2716,
      "##✔": 2717,
      "##ˊ": 2718,
      "##👚": 2719,
      "##👕": 2720,
      "##👖": 2721,
      "##👔": 2722,
      "##👗": 2723,
      "##👠": 2724,
      "##👟": 2725,
      "##🎒": 2726,
      "##👛": 2727,
      "##🕶": 2728,
      "##🌂": 2729,
      "##ḫ": 2730,
      "##ṃ": 2731,
      "##ǵ": 2732,
      "##ʼ": 2733,
      "##Ś": 2734,
      "##👻": 2735,
      "##👹": 2736,
      "##🌳": 2737,
      "##🌍": 2738,
      "##↔": 2739,
      "##꞉": 2740,
      "##ǎ": 2741,
      "##Ù": 2742,
      "##☆": 2743,
      "##Ì": 2744,
      "##👪": 2745,
      "##😽": 2746,
      "##🍨": 2747,
      "##ṛ": 2748,
      "##🔆": 2749,
      "##": 2750,
      "##🔥": 2751,
      "##🐓": 2752,
      "##🔺": 2753,
      "##🌡": 2754,
      "##👡": 2755,
      "##🍿": 2756,
      "##😔": 2757,
      "##🥛": 2758,
      "##👶": 2759,
      "##✋": 2760,
      "##😏": 2761,
      "##į": 2762,
      "##🔝": 2763,
      "##♫": 2764,
      "##🥚": 2765,
      "##🧀": 2766,
      "##🍗": 2767,
      "##🅞": 2768,
      "##🍭": 2769,
      "##Ÿ": 2770,
      "##💡": 2771,
      "##⚒": 2772,
      "##ǻ": 2773,
      "##Û": 2774,
      "##ụ": 2775,
      "##♭": 2776,
      "##🐰": 2777,
      "##🍅": 2778,
      "##↑": 2779,
      "##Ų": 2780,
      "##✊": 2781,
      "##❗": 2782,
      "##Œ": 2783,
      "##ơ": 2784,
      "##Ş": 2785,
      "##ː": 2786,
      "##🍧": 2787,
      "##💐": 2788,
      "##🎼": 2789,
      "##☀": 2790,
      "##🔨": 2791,
      "##🍻": 2792,
      "##🍾": 2793,
      "##🍱": 2794,
      "##⇐": 2795,
      "##ắ": 2796,
      "##🐣": 2797,
      "##ậ": 2798,
      "##🤛": 2799,
      "##🐠": 2800,
      "##🚐": 2801,
      "##💁": 2802,
      "##ợ": 2803,
      "##💅": 2804,
      "##🎊": 2805,
      "##⇒": 2806,
      "##ễ": 2807,
      "##ȝ": 2808,
      "##ǘ": 2809,
      "##🇲": 2810,
      "##🇹": 2811,
      "##😸": 2812,
      "##🥖": 2813,
      "##🌷": 2814,
      "##Ů": 2815,
      "##😚": 2816,
      "##🎙": 2817,
      "##🐝": 2818,
      "##ằ": 2819,
      "##🖤": 2820,
      "##ʿ": 2821,
      "##🥇": 2822,
      "##←": 2823,
      "##Ǝ": 2824,
      "##☉": 2825,
      "##🍊": 2826,
      "##😡": 2827,
      "##Ł": 2828,
      "##🚑": 2829,
      "##Ò": 2830,
      "##🧐": 2831,
      "##ủ": 2832,
      "##🌰": 2833,
      "##👧": 2834,
      "##⁩": 2835,
      "##👁": 2836,
      "##ṡ": 2837,
      "##😣": 2838,
      "##ĕ": 2839,
      "##➚": 2840,
      "##🐔": 2841,
      "##Ŝ": 2842,
      "##Ī": 2843,
      "##": 2844,
      "##💥": 2845,
      "##❖": 2846,
      "##👨": 2847,
      "##♢": 2848,
      "##ẍ": 2849,
      "##ŝ": 2850,
      "##🗿": 2851,
      "##▼": 2852,
      "##❔": 2853,
      "##ự": 2854,
      "##ď": 2855,
      "##🏿": 2856,
      "##ờ": 2857,
      "##ˮ": 2858,
      "##ĝ": 2859,
      "##ầ": 2860,
      "##🦃": 2861,
      "##↺": 2862,
      "##👀": 2863,
      "##ŧ": 2864,
      "##ħ": 2865,
      "##ẫ": 2866,
      "##💭": 2867,
      "##ĵ": 2868,
      "##🍷": 2869,
      "##🥰": 2870,
      "##Ž": 2871,
      "##⃗": 2872,
      "##🎧": 2873,
      "##🐶": 2874,
      "##☕": 2875,
      "##ȟ": 2876,
      "##⟱": 2877,
      "##💏": 2878,
      "##Ɔ": 2879,
      "##🌑": 2880,
      "##⊙": 2881,
      "##ẻ": 2882,
      "##🐾": 2883,
      "##Ả": 2884,
      "##": 2885,
      "##👉": 2886,
      "##🐦": 2887,
      "##├": 2888,
      "##Ý": 2889,
      "##🙀": 2890,
      "##🗝": 2891,
      "##💲": 2892,
      "##Ỹ": 2893,
      "##😓": 2894,
      "##Ŕ": 2895,
      "##🤝": 2896,
      "##🤶": 2897,
      "##ẹ": 2898,
      "##🍛": 2899,
      "##🍝": 2900,
      "##🍳": 2901,
      "##🍴": 2902,
      "##❥": 2903,
      "##💤": 2904,
      "##ǁ": 2905,
      "##🚄": 2906,
      "##🌕": 2907,
      "##💝": 2908,
      "##🙋": 2909,
      "##☘": 2910,
      "##💔": 2911,
      "##😞": 2912,
      "##😦": 2913,
      "##😤": 2914,
      "##Ě": 2915,
      "##⛏": 2916,
      "##🏗": 2917,
      "##ế": 2918,
      "##♛": 2919,
      "##ṑ": 2920,
      "##📓": 2921,
      "##🏆": 2922,
      "##☼": 2923,
      "##🍬": 2924,
      "##💟": 2925,
      "##🐎": 2926,
      "##🌼": 2927,
      "##🎀": 2928,
      "##🤮": 2929,
      "##🤧": 2930,
      "##Ć": 2931,
      "##ȃ": 2932,
      "##😮": 2933,
      "##⛅": 2934,
      "##Ř": 2935,
      "##🏡": 2936,
      "##🌶": 2937,
      "##🌝": 2938,
      "##Ę": 2939,
      "##👙": 2940,
      "##🎁": 2941,
      "##🇬": 2942,
      "##🇧": 2943,
      "##🤒": 2944,
      "##🕉": 2945,
      "##Ệ": 2946,
      "##≡": 2947,
      "##☁": 2948,
      "##✖": 2949,
      "##🎡": 2950,
      "##💶": 2951,
      "##⁦": 2952,
      "##😵": 2953,
      "##🌎": 2954,
      "##ḿ": 2955,
      "##😠": 2956,
      "##⏳": 2957,
      "##🍑": 2958,
      "##🍟": 2959,
      "##": 2960,
      "##➡": 2961,
      "##🥗": 2962,
      "##ƈ": 2963,
      "##🎩": 2964,
      "##🕺": 2965,
      "##ˇ": 2966,
      "##🥘": 2967,
      "##👴": 2968,
      "##ỷ": 2969,
      "##■": 2970,
      "##ẽ": 2971,
      "##🕯": 2972,
      "##∗": 2973,
      "##🤨": 2974,
      "##🥑": 2975,
      "##🍞": 2976,
      "##🥂": 2977,
      "##ṝ": 2978,
      "##∞": 2979,
      "##☝": 2980,
      "##🥨": 2981,
      "##🍵": 2982,
      "##🏒": 2983,
      "##👰": 2984,
      "##ẗ": 2985,
      "##🤘": 2986,
      "##🐇": 2987,
      "##Ɵ": 2988,
      "##🔮": 2989,
      "##😧": 2990,
      "##👅": 2991,
      "##🌓": 2992,
      "##🌗": 2993,
      "##🌘": 2994,
      "##🦉": 2995,
      "##🦊": 2996,
      "##🍍": 2997,
      "##🏇": 2998,
      "##🔑": 2999,
      "##ǧ": 3000,
      "##🍌": 3001,
      "##Ắ": 3002,
      "##🏂": 3003,
      "##👫": 3004,
      "##🏖": 3005,
      "##🏠": 3006,
      "##✧": 3007,
      "##👣": 3008,
      "##ǔ": 3009,
      "##ǒ": 3010,
      "##ừ": 3011,
      "##🎨": 3012,
      "##ử": 3013,
      "##ĭ": 3014,
      "##❓": 3015,
      "##🐩": 3016,
      "##😗": 3017,
      "##🎃": 3018,
      "##🥒": 3019,
      "##🌌": 3020,
      "##😪": 3021,
      "##📲": 3022,
      "##🐸": 3023,
      "##☂": 3024,
      "##🛵": 3025,
      "##😑": 3026,
      "##∴": 3027,
      "##🍒": 3028,
      "##🍏": 3029,
      "##🥦": 3030,
      "##🥕": 3031,
      "##🍋": 3032,
      "##🥩": 3033,
      "##🌭": 3034,
      "##🎣": 3035,
      "##Ʃ": 3036,
      "##ˀ": 3037,
      "##∙": 3038,
      "##♯": 3039,
      "##🔫": 3040,
      "##Ĺ": 3041,
      "##🍄": 3042,
      "##🕊": 3043,
      "##🎸": 3044,
      "##💄": 3045,
      "##🍉": 3046,
      "##🖒": 3047,
      "##Į": 3048,
      "##ȕ": 3049,
      "##Ŧ": 3050,
      "##Ğ": 3051,
      "##🤤": 3052,
      "##🇾": 3053,
      "##🐑": 3054,
      "##🏁": 3055,
      "##🛳": 3056,
      "##█": 3057,
      "##Ộ": 3058,
      "##🌴": 3059,
      "##∘": 3060,
      "##▀": 3061,
      "##🚀": 3062,
      "##🖐": 3063,
      "##💒": 3064,
      "##🦋": 3065,
      "##🍈": 3066,
      "##🇷": 3067,
      "##🇱": 3068,
      "##ồ": 3069,
      "##💎": 3070,
      "##Ť": 3071,
      "##🦁": 3072,
      "##📷": 3073,
      "##🌮": 3074,
      "##🍐": 3075,
      "##❌": 3076,
      "##🦏": 3077,
      "##🐟": 3078,
      "##🥃": 3079,
      "##🇺": 3080,
      "##▫": 3081,
      "##🍤": 3082,
      "##🚜": 3083,
      "##🍼": 3084,
      "##🙆": 3085,
      "##🔞": 3086,
      "##": 3087,
      "##♑": 3088,
      "##📱": 3089,
      "##🎵": 3090,
      "##∫": 3091,
      "##ʾ": 3092,
      "##ǝ": 3093,
      "##🤲": 3094,
      "##≠": 3095,
      "##🅢": 3096,
      "##🐀": 3097,
      "##⇧": 3098,
      "##🎬": 3099,
      "##▒": 3100,
      "##ị": 3101,
      "##➠": 3102,
      "##👸": 3103,
      "##Ē": 3104,
      "##ẳ": 3105,
      "##🎤": 3106,
      "##🎥": 3107,
      "##🐱": 3108,
      "##🍜": 3109,
      "##🥙": 3110,
      "##🍖": 3111,
      "##ỏ": 3112,
      "##💯": 3113,
      "##⧫": 3114,
      "##☚": 3115,
      "##⁠": 3116,
      "##🔵": 3117,
      "##🎳": 3118,
      "##⚪": 3119,
      "##↧": 3120,
      "##↡": 3121,
      "##🐿": 3122,
      "##Ồ": 3123,
      "##💀": 3124,
      "##℗": 3125,
      "##🍡": 3126,
      "##✍": 3127,
      "##ẩ": 3128,
      "##🛍": 3129,
      "##Ǿ": 3130,
      "##ỹ": 3131,
      "##◊": 3132,
      "##🐵": 3133,
      "##🎾": 3134,
      "##🤭": 3135,
      "##Ư": 3136,
      "##Ơ": 3137,
      "##▷": 3138,
      "##⛈": 3139,
      "##Ō": 3140,
      "##⌚": 3141,
      "##🍇": 3142,
      "##🚚": 3143,
      "##◇": 3144,
      "##♧": 3145,
      "##∈": 3146,
      "##➕": 3147,
      "##": 3148,
      "##🐖": 3149,
      "##◠": 3150,
      "##◡": 3151,
      "##≦": 3152,
      "##Ạ": 3153,
      "##⚡": 3154,
      "##🦅": 3155,
      "##🦎": 3156,
      "##🐢": 3157,
      "##🐊": 3158,
      "##➧": 3159,
      "##🍽": 3160,
      "##✎": 3161,
      "##✐": 3162,
      "##👈": 3163,
      "##⦁": 3164,
      "##🇦": 3165,
      "##🇽": 3166,
      "##ḵ": 3167,
      "##🇴": 3168,
      "##🕸": 3169,
      "##👦": 3170,
      "##ḗ": 3171,
      "##ỗ": 3172,
      "##Ð": 3173,
      "##➖": 3174,
      "##ḱ": 3175,
      "##ḳ": 3176,
      "##ǜ": 3177,
      "##❃": 3178,
      "##❀": 3179,
      "##🚢": 3180,
      "##ṁ": 3181,
      "##📯": 3182,
      "##🥭": 3183,
      "##Ớ": 3184,
      "##😹": 3185,
      "##🎪": 3186,
      "##🚴": 3187,
      "##🗺": 3188,
      "##✈": 3189,
      "##🌋": 3190,
      "##▓": 3191,
      "##🥥": 3192,
      "##⚘": 3193,
      "##🌊": 3194,
      "##🏅": 3195,
      "##👐": 3196,
      "##➒": 3197,
      "##⟰": 3198,
      "##⇪": 3199,
      "##◾": 3200,
      "##🍰": 3201,
      "##🎯": 3202,
      "##ǽ": 3203,
      "##🛫": 3204,
      "##☃": 3205,
      "##⋆": 3206,
      "##🏋": 3207,
      "##⎢": 3208,
      "##🔧": 3209,
      "##💂": 3210,
      "##👵": 3211,
      "##⇨": 3212,
      "##🤙": 3213,
      "##Ở": 3214,
      "##🥊": 3215,
      "##🏍": 3216,
      "##🐂": 3217,
      "##🐷": 3218,
      "##◘": 3219,
      "##☞": 3220,
      "##📘": 3221,
      "##📙": 3222,
      "##📕": 3223,
      "##📉": 3224,
      "##🇮": 3225,
      "##Ň": 3226,
      "##✅": 3227,
      "##🚛": 3228,
      "##ˌ": 3229,
      "##": 3230,
      "##🎮": 3231,
      "##⛄": 3232,
      "##Ɇ": 3233,
      "##🏙": 3234,
      "##🔸": 3235,
      "##✿": 3236,
      "##Ẹ": 3237,
      "##📦": 3238,
      "##🤫": 3239,
      "##✯": 3240,
      "##🇼": 3241,
      "##🐞": 3242,
      "##♾": 3243,
      "##": 3244,
      "##🕴": 3245,
      "##🌵": 3246,
      "##🎟": 3247,
      "##⬇": 3248,
      "##ỉ": 3249,
      "##ḧ": 3250,
      "##🔴": 3251,
      "##👳": 3252,
      "##👺": 3253,
      "##😈": 3254,
      "##␣": 3255,
      "##Ự": 3256,
      "##ẵ": 3257,
      "##📈": 3258,
      "##🐧": 3259,
      "##🎭": 3260,
      "##☔": 3261,
      "##🇫": 3262,
      "##Ω": 3263,
      "##🏎": 3264,
      "##🤯": 3265,
      "##⏰": 3266,
      "##🦇": 3267,
      "##📌": 3268,
      "##📍": 3269,
      "##🍆": 3270,
      "##🤞": 3271,
      "##◕": 3272,
      "##😺": 3273,
      "##💠": 3274,
      "##🎐": 3275,
      "##ŷ": 3276,
      "##🌨": 3277,
      "##🎋": 3278,
      "##🐏": 3279,
      "##✭": 3280,
      "##👒": 3281,
      "##ỡ": 3282,
      "##🎲": 3283,
      "##♏": 3284,
      "##🅗": 3285,
      "##🅡": 3286,
      "##🅣": 3287,
      "##💻": 3288,
      "##Ế": 3289,
      "##✱": 3290,
      "##△": 3291,
      "##🌅": 3292,
      "##⏎": 3293,
      "##🖌": 3294,
      "##Ụ": 3295,
      "##📄": 3296,
      "##🌠": 3297,
      "##🤥": 3298,
      "##∏": 3299,
      "##🐁": 3300,
      "##❸": 3301,
      "##🏀": 3302,
      "##✫": 3303,
      "##⊃": 3304,
      "##🗞": 3305,
      "##⚔": 3306,
      "##🌙": 3307,
      "##🇨": 3308,
      "##✏": 3309,
      "##✚": 3310,
      "##🖕": 3311,
      "##ȯ": 3312,
      "##╙": 3313,
      "##🦆": 3314,
      "##🌛": 3315,
      "##ŵ": 3316,
      "##🆘": 3317,
      "##Ủ": 3318,
      "##📧": 3319,
      "##╮": 3320,
      "##⊽": 3321,
      "##🏊": 3322,
      "##≪": 3323,
      "##⇔": 3324,
      "##📖": 3325,
      "##➊": 3326,
      "##ẓ": 3327,
      "##🐜": 3328,
      "##🐌": 3329,
      "##📗": 3330,
      "##💑": 3331,
      "##🛏": 3332,
      "##🤕": 3333,
      "##🎺": 3334,
      "##🐬": 3335,
      "##🐡": 3336,
      "##🦈": 3337,
      "##🐳": 3338,
      "##🐋": 3339,
      "##❕": 3340,
      "##▭": 3341,
      "##💉": 3342,
      "##👄": 3343,
      "##┘": 3344,
      "##✩": 3345,
      "##⃒": 3346,
      "##⃘": 3347,
      "##🏈": 3348,
      "##🤰": 3349,
      "##🥌": 3350,
      "##🎻": 3351,
      "##❺": 3352,
      "##🔼": 3353,
      "##🤐": 3354,
      "##🌧": 3355,
      "##🌏": 3356,
      "##🥡": 3357,
      "##☠": 3358,
      "##🐗": 3359,
      "##🥴": 3360,
      "##↦": 3361,
      "##🧣": 3362,
      "##🇻": 3363,
      "##⎪": 3364,
      "##⎨": 3365,
      "##⎧": 3366,
      "##✼": 3367,
      "##🥅": 3368,
      "##⎜": 3369,
      "##🌬": 3370,
      "##🤠": 3371,
      "##🚘": 3372,
      "##🎹": 3373,
      "##💵": 3374,
      "##Ĝ": 3375,
      "##🦌": 3376,
      "##Ə": 3377,
      "##☛": 3378,
      "##🎠": 3379,
      "##🤡": 3380,
      "##🥾": 3381,
      "##👢": 3382,
      "##🛌": 3383,
      "##ḉ": 3384,
      "##🥳": 3385,
      "##Ū": 3386,
      "##🐛": 3387,
      "##🐍": 3388,
      "##Ọ": 3389,
      "##🌃": 3390,
      "##🥐": 3391,
      "##💣": 3392,
      "##❎": 3393,
      "##📿": 3394,
      "##ỳ": 3395,
      "##🦐": 3396,
      "##🇵": 3397,
      "##✰": 3398,
      "##⛰": 3399,
      "##∀": 3400,
      "##🏘": 3401,
      "##🎆": 3402,
      "##🏃": 3403,
      "##⟶": 3404,
      "##🔜": 3405,
      "##Ȳ": 3406,
      "##➨": 3407,
      "##🛥": 3408,
      "##♂": 3409,
      "##⛵": 3410,
      "##💆": 3411,
      "##ṗ": 3412,
      "##☄": 3413,
      "##∵": 3414,
      "##ṧ": 3415,
      "##🅔": 3416,
      "##🅖": 3417,
      "##⁣": 3418,
      "##🚂": 3419,
      "##📣": 3420,
      "##👱": 3421,
      "##ƨ": 3422,
      "##💺": 3423,
      "##📔": 3424,
      "##✝": 3425,
      "##↗": 3426,
      "##Ợ": 3427,
      "##☮": 3428,
      "##🐆": 3429,
      "##✳": 3430,
      "##🤜": 3431,
      "##↘": 3432,
      "##✽": 3433,
      "##✺": 3434,
      "##☒": 3435,
      "##♬": 3436,
      "##♺": 3437,
      "##⊰": 3438,
      "##◗": 3439,
      "##⛴": 3440,
      "##Ờ": 3441,
      "##🦓": 3442,
      "##🐅": 3443,
      "##🐘": 3444,
      "##✪": 3445,
      "##ȴ": 3446,
      "##ǃ": 3447,
      "##❈": 3448,
      "##✾": 3449,
      "##⛳": 3450,
      "##🖥": 3451,
      "##ĸ": 3452,
      "##↯": 3453,
      "##📅": 3454,
      "##✂": 3455,
      "##🧠": 3456,
      "##◀": 3457,
      "##❇": 3458,
      "##✴": 3459,
      "##∛": 3460,
      "##🌪": 3461,
      "##📰": 3462,
      "##➋": 3463,
      "##➌": 3464,
      "##🚍": 3465,
      "##ˉ": 3466,
      "##🐼": 3467,
      "##✶": 3468,
      "##ḷ": 3469,
      "##❽": 3470,
      "##ɣ": 3471,
      "##🚵": 3472,
      "##🇭": 3473,
      "##━": 3474,
      "##➩": 3475,
      "##Ằ": 3476,
      "##🇳": 3477,
      "##👽": 3478,
      "##🎖": 3479,
      "##🌆": 3480,
      "##🍣": 3481,
      "##🥟": 3482,
      "##📻": 3483,
      "##❶": 3484,
      "##▪": 3485,
      "##🥈": 3486,
      "##␍": 3487,
      "##☟": 3488,
      "##⇑": 3489,
      "##✉": 3490,
      "##⋯": 3491,
      "##Ṛ": 3492,
      "##🐺": 3493,
      "##🦂": 3494,
      "##🦀": 3495,
      "##🦑": 3496,
      "##🐙": 3497,
      "##🐹": 3498,
      "##🐨": 3499,
      "##🐭": 3500,
      "##🐻": 3501,
      "##🐽": 3502,
      "##⛱": 3503,
      "##Ẫ": 3504,
      "##🖑": 3505,
      "##👮": 3506,
      "##➔": 3507,
      "##🌒": 3508,
      "##📝": 3509,
      "##⚓": 3510,
      "##˅": 3511,
      "##ǚ": 3512,
      "##ĥ": 3513,
      "##↪": 3514,
      "##↲": 3515,
      "##♍": 3516,
      "##Ữ": 3517,
      "##🍯": 3518,
      "##🌦": 3519,
      "##🥪": 3520,
      "##Ứ": 3521,
      "##ǥ": 3522,
      "##🤚": 3523,
      "##🚌": 3524,
      "##🚋": 3525,
      "##🚈": 3526,
      "##💳": 3527,
      "##ƀ": 3528,
      "##🤟": 3529,
      "##🇩": 3530,
      "##ḕ": 3531,
      "##↨": 3532,
      "##╬": 3533,
      "##↶": 3534,
      "##🤴": 3535,
      "##⌥": 3536,
      "##⌘": 3537,
      "##☭": 3538,
      "##🚼": 3539,
      "##🎰": 3540,
      "##∋": 3541,
      "##🚁": 3542,
      "##🚔": 3543,
      "##˃": 3544,
      "##": 3545,
      "##": 3546,
      "##🥀": 3547,
      "##∼": 3548,
      "##📞": 3549,
      "##Ố": 3550,
      "##❞": 3551,
      "##Ő": 3552,
      "##Ị": 3553,
      "##📺": 3554,
      "##Ļ": 3555,
      "##∆": 3556,
      "##🌯": 3557,
      "##Ė": 3558,
      "##ǣ": 3559,
      "##💬": 3560,
      "##🔦": 3561,
      "##🤵": 3562,
      "##☽": 3563,
      "##⛸": 3564,
      "##Ɨ": 3565,
      "##♩": 3566,
      "##∩": 3567,
      "##┐": 3568,
      "##┬": 3569,
      "##ḁ": 3570,
      "##Ɛ": 3571,
      "##Ừ": 3572,
      "##☑": 3573,
      "##Ű": 3574,
      "##⊕": 3575,
      "##📢": 3576,
      "##≫": 3577,
      "##🔙": 3578,
      "##🔛": 3579,
      "##🚫": 3580,
      "##ḡ": 3581,
      "##Ḧ": 3582,
      "##Ƒ": 3583,
      "##🚤": 3584,
      "##🏰": 3585,
      "##◙": 3586,
      "##◄": 3587,
      "##↕": 3588,
      "##✬": 3589,
      "##❊": 3590,
      "##🚒": 3591,
      "##🚓": 3592,
      "##🛬": 3593,
      "##🌉": 3594,
      "##ȳ": 3595,
      "##📽": 3596,
      "##🏕": 3597,
      "##⌒": 3598,
      "##ˑ": 3599,
      "##🔍": 3600,
      "##🥧": 3601,
      "##┃": 3602,
      "##🛶": 3603,
      "##🥺": 3604,
      "##🎓": 3605,
      "##☇": 3606,
      "##⛷": 3607,
      "##🥔": 3608,
      "##≧": 3609,
      "##🗼": 3610,
      "##🏥": 3611,
      "##🍮": 3612,
      "##❹": 3613,
      "##🎢": 3614,
      "##Ċ": 3615,
      "##🔅": 3616,
      "##Ể": 3617,
      "##🏛": 3618,
      "##⚫": 3619,
      "##🔽": 3620,
      "##❟": 3621,
      "##⃠": 3622,
      "##⬆": 3623,
      "##⛺": 3624,
      "##🇰": 3625,
      "##↮": 3626,
      "##⌣": 3627,
      "##☯": 3628,
      "##🗻": 3629,
      "##🏔": 3630,
      "##🛠": 3631,
      "##ḋ": 3632,
      "##ȏ": 3633,
      "##🏣": 3634,
      "##☎": 3635,
      "##👜": 3636,
      "##❚": 3637,
      "##Ậ": 3638,
      "##⛧": 3639,
      "##🔩": 3640,
      "##🏫": 3641,
      "##🏐": 3642,
      "##Ħ": 3643,
      "##🛡": 3644,
      "##🤦": 3645,
      "##🥁": 3646,
      "##☢": 3647,
      "##ƕ": 3648,
      "##🦔": 3649,
      "##🥞": 3650,
      "##⊂": 3651,
      "##🚃": 3652,
      "##👷": 3653,
      "##🏵": 3654,
      "##😾": 3655,
      "##👃": 3656,
      "##🔎": 3657,
      "##ʽ": 3658,
      "##Ề": 3659,
      "##🐚": 3660,
      "##ṓ": 3661,
      "##🚪": 3662,
      "##ṿ": 3663,
      "##⛥": 3664,
      "##⛦": 3665,
      "##⛤": 3666,
      "##🍢": 3667,
      "##🤖": 3668,
      "##⎮": 3669,
      "##🌫": 3670,
      "##💱": 3671,
      "##ɍ": 3672,
      "##Ș": 3673,
      "##🅘": 3674,
      "##🅕": 3675,
      "##🧢": 3676,
      "##💼": 3677,
      "##∻": 3678,
      "##📼": 3679,
      "##🌤": 3680,
      "##∑": 3681,
      "##🛀": 3682,
      "##🚣": 3683,
      "##🛁": 3684,
      "##🏞": 3685,
      "##➤": 3686,
      "##❙": 3687,
      "##❷": 3688,
      "##ȇ": 3689,
      "##💊": 3690,
      "##🏷": 3691,
      "##⟵": 3692,
      "##🔪": 3693,
      "##Ǻ": 3694,
      "##🔔": 3695,
      "##🏝": 3696,
      "##🚽": 3697,
      "##🛋": 3698,
      "##🛩": 3699,
      "##📀": 3700,
      "##◅": 3701,
      "##🧦": 3702,
      "##⌢": 3703,
      "##🛢": 3704,
      "##⚰": 3705,
      "##Ễ": 3706,
      "##✦": 3707,
      "##Ď": 3708,
      "##🕎": 3709,
      "##🌩": 3710,
      "##↴": 3711,
      "##🥬": 3712,
      "##Ẻ": 3713,
      "##₣": 3714,
      "##ꜣ": 3715,
      "##🏸": 3716,
      "##└": 3717,
      "##▬": 3718,
      "##ḓ": 3719,
      "##🧒": 3720,
      "##🚬": 3721,
      "##👥": 3722,
      "##ƥ": 3723,
      "##∠": 3724,
      "##ȧ": 3725,
      "##🖋": 3726,
      "##🗣": 3727,
      "##⛪": 3728,
      "##🥄": 3729,
      "##🚞": 3730,
      "##🔚": 3731,
      "##🔊": 3732,
      "##🤱": 3733,
      "##👂": 3734,
      "##⇓": 3735,
      "##ȩ": 3736,
      "##🏚": 3737,
      "##Ķ": 3738,
      "##🕛": 3739,
      "##Ź": 3740,
      "##Ầ": 3741,
      "##📆": 3742,
      "##📐": 3743,
      "##✡": 3744,
      "##˂": 3745,
      "##⇩": 3746,
      "##₪": 3747,
      "##🥉": 3748,
      "##🌔": 3749,
      "##🌖": 3750,
      "##↟": 3751,
      "##˗": 3752,
      "##🥫": 3753,
      "##Ț": 3754,
      "##🖍": 3755,
      "##◦": 3756,
      "##Ʌ": 3757,
      "##Ổ": 3758,
      "##∇": 3759,
      "##♕": 3760,
      "##🥤": 3761,
      "##◂": 3762,
      "##🎞": 3763,
      "##🐉": 3764,
      "##🚾": 3765,
      "##░": 3766,
      "##🎇": 3767,
      "##Ẩ": 3768,
      "##🏜": 3769,
      "##▐": 3770,
      "##↳": 3771,
      "##⇉": 3772,
      "##Ẕ": 3773,
      "##╠": 3774,
      "##📒": 3775,
      "##📩": 3776,
      "##🏄": 3777,
      "##Ẓ": 3778,
      "##👘": 3779,
      "##✒": 3780,
      "##🤸": 3781,
      "##⧉": 3782,
      "##🛒": 3783,
      "##🔈": 3784,
      "##╔": 3785,
      "##❑": 3786,
      "##🔶": 3787,
      "##Ẍ": 3788,
      "##🚿": 3789,
      "##⤵": 3790,
      "##✘": 3791,
      "##Ȧ": 3792,
      "##🏓": 3793,
      "##🕒": 3794,
      "##📮": 3795,
      "##📬": 3796,
      "##🦕": 3797,
      "##🦗": 3798,
      "##🌇": 3799,
      "##🏨": 3800,
      "##ˏ": 3801,
      "##ǩ": 3802,
      "##ƫ": 3803,
      "##ḙ": 3804,
      "##Ņ": 3805,
      "##🔻": 3806,
      "##💷": 3807,
      "##🦒": 3808,
      "##⚜": 3809,
      "##Ĩ": 3810,
      "##⚾": 3811,
      "##🖖": 3812,
      "##➬": 3813,
      "##ˁ": 3814,
      "##🔋": 3815,
      "##🚖": 3816,
      "##🛸": 3817,
      "##ȋ": 3818,
      "##ɉ": 3819,
      "##🧤": 3820,
      "##◆": 3821,
      "##Ỗ": 3822,
      "##🥝": 3823,
      "##🐫": 3824,
      "##🍚": 3825,
      "##🏹": 3826,
      "##⏐": 3827,
      "##║": 3828,
      "##💇": 3829,
      "##🤷": 3830,
      "##🚉": 3831,
      "##🚆": 3832,
      "##🚅": 3833,
      "##🔄": 3834,
      "##⭕": 3835,
      "##Ḟ": 3836,
      "##Ŵ": 3837,
      "##Ặ": 3838,
      "##er": 3839,
      "##en": 3840,
      "##ar": 3841,
      "##an": 3842,
      "##et": 3843,
      "##tt": 3844,
      "##ll": 3845,
      "##in": 3846,
      "##ör": 3847,
      "##ch": 3848,
      "##st": 3849,
      "##om": 3850,
      "och": 3851,
      "##ig": 3852,
      "##ag": 3853,
      "##de": 3854,
      "##or": 3855,
      "att": 3856,
      "##ed": 3857,
      "##on": 3858,
      "för": 3859,
      "##ing": 3860,
      "##ka": 3861,
      "##är": 3862,
      "##at": 3863,
      "in": 3864,
      "en": 3865,
      "##na": 3866,
      "##ill": 3867,
      "är": 3868,
      "##ra": 3869,
      "som": 3870,
      "##kt": 3871,
      "på": 3872,
      "det": 3873,
      "##än": 3874,
      "##el": 3875,
      "##ck": 3876,
      "##is": 3877,
      "##te": 3878,
      "med": 3879,
      "av": 3880,
      "till": 3881,
      "##pp": 3882,
      "##al": 3883,
      "##nd": 3884,
      "##ning": 3885,
      "##am": 3886,
      "##es": 3887,
      "##id": 3888,
      "jag": 3889,
      "st": 3890,
      "##lig": 3891,
      "##ter": 3892,
      "var": 3893,
      "##il": 3894,
      "##as": 3895,
      "##it": 3896,
      "##ån": 3897,
      "har": 3898,
      "##år": 3899,
      "om": 3900,
      "##ver": 3901,
      "##ro": 3902,
      "##ade": 3903,
      "##em": 3904,
      "så": 3905,
      "den": 3906,
      "inte": 3907,
      "##ad": 3908,
      "##and": 3909,
      "##iv": 3910,
      "##re": 3911,
      "ut": 3912,
      "sk": 3913,
      "##ol": 3914,
      "##sk": 3915,
      "##äl": 3916,
      "##un": 3917,
      "de": 3918,
      "##ion": 3919,
      "##ätt": 3920,
      "##ur": 3921,
      "##ta": 3922,
      "##li": 3923,
      "vi": 3924,
      "ett": 3925,
      "an": 3926,
      "##are": 3927,
      "kan": 3928,
      "fr": 3929,
      "##ller": 3930,
      "##åg": 3931,
      "##ot": 3932,
      "kom": 3933,
      "##der": 3934,
      "##ande": 3935,
      "du": 3936,
      "all": 3937,
      "##ut": 3938,
      "##gen": 3939,
      "##ik": 3940,
      "##ens": 3941,
      "upp": 3942,
      "ska": 3943,
      "##het": 3944,
      "##itt": 3945,
      "Det": 3946,
      "##us": 3947,
      "##för": 3948,
      "##sta": 3949,
      "##ans": 3950,
      "##ga": 3951,
      "man": 3952,
      "##sa": 3953,
      "##äll": 3954,
      "##ort": 3955,
      "komm": 3956,
      "men": 3957,
      "be": 3958,
      "##da": 3959,
      "##nder": 3960,
      "##äg": 3961,
      "##og": 3962,
      "sp": 3963,
      "##ns": 3964,
      "##ru": 3965,
      "##fter": 3966,
      "##le": 3967,
      "##ss": 3968,
      "##yck": 3969,
      "##ent": 3970,
      "eller": 3971,
      "min": 3972,
      "##la": 3973,
      "sam": 3974,
      "##igt": 3975,
      "##äm": 3976,
      "från": 3977,
      "när": 3978,
      "fin": 3979,
      "##ligt": 3980,
      "##ri": 3981,
      "någ": 3982,
      "##ma": 3983,
      "##ell": 3984,
      "##art": 3985,
      "tr": 3986,
      "##ul": 3987,
      "##ara": 3988,
      "li": 3989,
      "##ull": 3990,
      "##ger": 3991,
      "##ation": 3992,
      "hel": 3993,
      "sig": 3994,
      "##all": 3995,
      "##bb": 3996,
      "##den": 3997,
      "Jag": 3998,
      "där": 3999,
      "##um": 4000,
      "##ste": 4001,
      "##ker": 4002,
      "##att": 4003,
      "re": 4004,
      "pro": 4005,
      "##ram": 4006,
      "##arna": 4007,
      "##isk": 4008,
      "år": 4009,
      "under": 4010,
      "över": 4011,
      "##ster": 4012,
      "##ud": 4013,
      "##yg": 4014,
      "##ven": 4015,
      "bli": 4016,
      "ha": 4017,
      "##dag": 4018,
      "##ff": 4019,
      "##bet": 4020,
      "efter": 4021,
      "##äng": 4022,
      "##ess": 4023,
      "##jäl": 4024,
      "gör": 4025,
      "se": 4026,
      "bl": 4027,
      "##ång": 4028,
      "##sl": 4029,
      "##var": 4030,
      "##sp": 4031,
      "kommer": 4032,
      "##ft": 4033,
      "här": 4034,
      "ar": 4035,
      "##ick": 4036,
      "##ska": 4037,
      "må": 4038,
      "##del": 4039,
      "mig": 4040,
      "han": 4041,
      "kon": 4042,
      "##ats": 4043,
      "vara": 4044,
      "ny": 4045,
      "##ak": 4046,
      "##så": 4047,
      "sl": 4048,
      "##os": 4049,
      "tid": 4050,
      "##era": 4051,
      "ju": 4052,
      "##ne": 4053,
      "då": 4054,
      "##cka": 4055,
      "nu": 4056,
      "##od": 4057,
      "##ycket": 4058,
      "##erna": 4059,
      "allt": 4060,
      "del": 4061,
      "fl": 4062,
      "##ju": 4063,
      "kl": 4064,
      "##ers": 4065,
      "##vän": 4066,
      "få": 4067,
      "##liga": 4068,
      "finns": 4069,
      "kr": 4070,
      "dag": 4071,
      "##je": 4072,
      "##ok": 4073,
      "väl": 4074,
      "lite": 4075,
      "##im": 4076,
      "alla": 4077,
      "##edan": 4078,
      "##ock": 4079,
      "##und": 4080,
      "vill": 4081,
      "sin": 4082,
      "##opp": 4083,
      "pr": 4084,
      "Vi": 4085,
      "##ass": 4086,
      "mycket": 4087,
      "##iska": 4088,
      "##ningen": 4089,
      "##orm": 4090,
      "##sam": 4091,
      "##ist": 4092,
      "vid": 4093,
      "än": 4094,
      "##ling": 4095,
      "##iga": 4096,
      "##els": 4097,
      "får": 4098,
      "bara": 4099,
      "##ligen": 4100,
      "and": 4101,
      "##ikt": 4102,
      "bra": 4103,
      "ock": 4104,
      "##dr": 4105,
      "fram": 4106,
      "ta": 4107,
      "För": 4108,
      "##ilj": 4109,
      "Den": 4110,
      "tv": 4111,
      "hon": 4112,
      "##änn": 4113,
      "fa": 4114,
      "##öj": 4115,
      "också": 4116,
      "beh": 4117,
      "gen": 4118,
      "ex": 4119,
      "pl": 4120,
      "mer": 4121,
      "St": 4122,
      "hade": 4123,
      "ver": 4124,
      "##ov": 4125,
      "##yr": 4126,
      "##ulle": 4127,
      "hem": 4128,
      "##kl": 4129,
      "##kar": 4130,
      "mot": 4131,
      "sv": 4132,
      "även": 4133,
      "##eck": 4134,
      "##ant": 4135,
      "##per": 4136,
      "##ost": 4137,
      "bör": 4138,
      "hur": 4139,
      "kun": 4140,
      "or": 4141,
      "##ningar": 4142,
      "##ber": 4143,
      "Men": 4144,
      "vis": 4145,
      "kv": 4146,
      "andra": 4147,
      "En": 4148,
      "##mar": 4149,
      "##est": 4150,
      "##öd": 4151,
      "##lev": 4152,
      "skulle": 4153,
      "##ord": 4154,
      "##bl": 4155,
      "##äst": 4156,
      "hö": 4157,
      "##pa": 4158,
      "##åll": 4159,
      "ann": 4160,
      "##rå": 4161,
      "##ket": 4162,
      "##ön": 4163,
      "vad": 4164,
      "##rä": 4165,
      "vil": 4166,
      "arbet": 4167,
      "In": 4168,
      "##org": 4169,
      "bil": 4170,
      "vär": 4171,
      "blir": 4172,
      "##oll": 4173,
      "##ånga": 4174,
      "er": 4175,
      "##erson": 4176,
      "dig": 4177,
      "din": 4178,
      "bes": 4179,
      "##ekt": 4180,
      "##ställ": 4181,
      "##ic": 4182,
      "genom": 4183,
      "##jälv": 4184,
      "stor": 4185,
      "##op": 4186,
      "##ja": 4187,
      "använ": 4188,
      "spel": 4189,
      "sen": 4190,
      "##ott": 4191,
      "##ken": 4192,
      "##ett": 4193,
      "samt": 4194,
      "ty": 4195,
      "kän": 4196,
      "utan": 4197,
      "sy": 4198,
      "vår": 4199,
      "##itet": 4200,
      "##vis": 4201,
      "lä": 4202,
      "##iskt": 4203,
      "själv": 4204,
      "ser": 4205,
      "##arn": 4206,
      "br": 4207,
      "förs": 4208,
      "någon": 4209,
      "##bil": 4210,
      "sä": 4211,
      "##ci": 4212,
      "##eg": 4213,
      "bet": 4214,
      "##rat": 4215,
      "##som": 4216,
      "##ek": 4217,
      "##går": 4218,
      "sm": 4219,
      "göra": 4220,
      "##ök": 4221,
      "##öl": 4222,
      "##ser": 4223,
      "person": 4224,
      "##mer": 4225,
      "##ygg": 4226,
      "verk": 4227,
      "##riv": 4228,
      "något": 4229,
      "##nad": 4230,
      "detta": 4231,
      "##inn": 4232,
      "##ier": 4233,
      "##nings": 4234,
      "ber": 4235,
      "##åt": 4236,
      "oss": 4237,
      "##öm": 4238,
      "##du": 4239,
      "##ef": 4240,
      "res": 4241,
      "många": 4242,
      "två": 4243,
      "vä": 4244,
      "##obb": 4245,
      "fick": 4246,
      "går": 4247,
      "sedan": 4248,
      "##lika": 4249,
      "##tr": 4250,
      "##ir": 4251,
      "##av": 4252,
      "De": 4253,
      "##aren": 4254,
      "blev": 4255,
      "##vär": 4256,
      "##gi": 4257,
      "##sätt": 4258,
      "hand": 4259,
      "##ts": 4260,
      "##ende": 4261,
      "##ack": 4262,
      "##tal": 4263,
      "mat": 4264,
      "##ia": 4265,
      "sätt": 4266,
      "helt": 4267,
      "sn": 4268,
      "##ug": 4269,
      "##pl": 4270,
      "##ld": 4271,
      "##ighet": 4272,
      "##if": 4273,
      "##man": 4274,
      "behö": 4275,
      "gå": 4276,
      "##ets": 4277,
      "gj": 4278,
      "##ägg": 4279,
      "##des": 4280,
      "##eter": 4281,
      "al": 4282,
      "##kom": 4283,
      "börj": 4284,
      "olika": 4285,
      "dem": 4286,
      "rätt": 4287,
      "barn": 4288,
      "läng": 4289,
      "hela": 4290,
      "##akt": 4291,
      "##öp": 4292,
      "##lar": 4293,
      "##ske": 4294,
      "vet": 4295,
      "sitt": 4296,
      "inne": 4297,
      "##men": 4298,
      "##ika": 4299,
      "jobb": 4300,
      "##alt": 4301,
      "##nan": 4302,
      "##stå": 4303,
      "##lighet": 4304,
      "##ring": 4305,
      "hög": 4306,
      "of": 4307,
      "##ästa": 4308,
      "##ering": 4309,
      "Om": 4310,
      "##form": 4311,
      "##ala": 4312,
      "##land": 4313,
      "##sb": 4314,
      "##ult": 4315,
      "gru": 4316,
      "##verig": 4317,
      "##sm": 4318,
      "##eras": 4319,
      "##atur": 4320,
      "första": 4321,
      "fort": 4322,
      "##nar": 4323,
      "rikt": 4324,
      "varit": 4325,
      "##ellan": 4326,
      "##äv": 4327,
      "gl": 4328,
      "tän": 4329,
      "lag": 4330,
      "bå": 4331,
      "hitt": 4332,
      "några": 4333,
      "ni": 4334,
      "un": 4335,
      "##ys": 4336,
      "reg": 4337,
      "##ast": 4338,
      "##kte": 4339,
      "liv": 4340,
      "##äd": 4341,
      "##yd": 4342,
      "##jer": 4343,
      "måste": 4344,
      "##ting": 4345,
      "Och": 4346,
      "##digt": 4347,
      "des": 4348,
      "##ark": 4349,
      "##unt": 4350,
      "##erade": 4351,
      "nya": 4352,
      "##etag": 4353,
      "igen": 4354,
      "##ang": 4355,
      "denna": 4356,
      "Sverig": 4357,
      "##va": 4358,
      "gr": 4359,
      "hjäl": 4360,
      "An": 4361,
      "per": 4362,
      "När": 4363,
      "inom": 4364,
      "##enska": 4365,
      "##rev": 4366,
      "##ie": 4367,
      "le": 4368,
      "åt": 4369,
      "##håll": 4370,
      "##ida": 4371,
      "möj": 4372,
      "##ät": 4373,
      "sa": 4374,
      "##veck": 4375,
      "##nas": 4376,
      "lig": 4377,
      "##ce": 4378,
      "mellan": 4379,
      "##edel": 4380,
      "idag": 4381,
      "##uv": 4382,
      "vän": 4383,
      "##ym": 4384,
      "##ella": 4385,
      "##tern": 4386,
      "änd": 4387,
      "##äk": 4388,
      "Så": 4389,
      "##ust": 4390,
      "##ann": 4391,
      "Sk": 4392,
      "##sen": 4393,
      "##se": 4394,
      "led": 4395,
      "##orde": 4396,
      "ner": 4397,
      "##ien": 4398,
      "Du": 4399,
      "##skap": 4400,
      "##ål": 4401,
      "slut": 4402,
      "annat": 4403,
      "##gr": 4404,
      "##sn": 4405,
      "vå": 4406,
      "ly": 4407,
      "fråg": 4408,
      "stör": 4409,
      "##ktion": 4410,
      "kanske": 4411,
      "##äger": 4412,
      "pa": 4413,
      "##pel": 4414,
      "vilket": 4415,
      "##orna": 4416,
      "##kel": 4417,
      "##hol": 4418,
      "hän": 4419,
      "fun": 4420,
      "egen": 4421,
      "sö": 4422,
      "##fr": 4423,
      "innan": 4424,
      "##ex": 4425,
      "##utom": 4426,
      "vikt": 4427,
      "##rakt": 4428,
      "Nu": 4429,
      "ch": 4430,
      "##ativ": 4431,
      "##gar": 4432,
      "##anska": 4433,
      "##ött": 4434,
      "##tro": 4435,
      "##get": 4436,
      "##gång": 4437,
      "dom": 4438,
      "##pr": 4439,
      "mo": 4440,
      "##uvud": 4441,
      "lång": 4442,
      "tro": 4443,
      "kommun": 4444,
      "land": 4445,
      "##else": 4446,
      "di": 4447,
      "vin": 4448,
      "##kon": 4449,
      "mitt": 4450,
      "sina": 4451,
      "##atten": 4452,
      "##det": 4453,
      "##ej": 4454,
      "hen": 4455,
      "fil": 4456,
      "både": 4457,
      "##ytt": 4458,
      "##ha": 4459,
      "ans": 4460,
      "bland": 4461,
      "akt": 4462,
      "##ycker": 4463,
      "##jär": 4464,
      "dessa": 4465,
      "##ades": 4466,
      "sju": 4467,
      "Han": 4468,
      "ligger": 4469,
      "fär": 4470,
      "männ": 4471,
      "##orr": 4472,
      "lär": 4473,
      "kunna": 4474,
      "Sverige": 4475,
      "##äller": 4476,
      "fakt": 4477,
      "hos": 4478,
      "##io": 4479,
      "##rum": 4480,
      "behöver": 4481,
      "##ap": 4482,
      "##br": 4483,
      "van": 4484,
      "föl": 4485,
      "##igare": 4486,
      "##änner": 4487,
      "##verk": 4488,
      "##sten": 4489,
      "säger": 4490,
      "tal": 4491,
      "På": 4492,
      "##jän": 4493,
      "runt": 4494,
      "All": 4495,
      "företag": 4496,
      "kall": 4497,
      "##ös": 4498,
      "nog": 4499,
      "par": 4500,
      "ingen": 4501,
      "##arbet": 4502,
      "##str": 4503,
      "gick": 4504,
      "ro": 4505,
      "Fr": 4506,
      "##aka": 4507,
      "läg": 4508,
      "##ingen": 4509,
      "alltid": 4510,
      "##äs": 4511,
      "##yn": 4512,
      "ord": 4513,
      "##erar": 4514,
      "använd": 4515,
      "plats": 4516,
      "först": 4517,
      "sna": 4518,
      "dat": 4519,
      "fall": 4520,
      "huvud": 4521,
      "##oka": 4522,
      "samma": 4523,
      "##lägg": 4524,
      "tar": 4525,
      "##erad": 4526,
      "håll": 4527,
      "##samhet": 4528,
      "##änd": 4529,
      "fan": 4530,
      "utveck": 4531,
      "##olk": 4532,
      "ur": 4533,
      "dr": 4534,
      "fy": 4535,
      "##nade": 4536,
      "##ars": 4537,
      "##holm": 4538,
      "##slag": 4539,
      "##aste": 4540,
      "åter": 4541,
      "##he": 4542,
      "produ": 4543,
      "##fatt": 4544,
      "##vet": 4545,
      "##ip": 4546,
      "tag": 4547,
      "##bild": 4548,
      "Har": 4549,
      "väldigt": 4550,
      "##ppen": 4551,
      "##ten": 4552,
      "##naden": 4553,
      "##amilj": 4554,
      "riktigt": 4555,
      "##tid": 4556,
      "våra": 4557,
      "##eb": 4558,
      "##ub": 4559,
      "skol": 4560,
      "trä": 4561,
      "##mans": 4562,
      "##enter": 4563,
      "ger": 4564,
      "##lin": 4565,
      "##tress": 4566,
      "##tag": 4567,
      "flera": 4568,
      "##ank": 4569,
      "milj": 4570,
      "##nen": 4571,
      "##ättre": 4572,
      "grund": 4573,
      "##ow": 4574,
      "dej": 4575,
      "##äck": 4576,
      "##kter": 4577,
      "##led": 4578,
      "människ": 4579,
      "##raf": 4580,
      "stora": 4581,
      "varje": 4582,
      "so": 4583,
      "##pt": 4584,
      "gång": 4585,
      "##under": 4586,
      "##par": 4587,
      "##sh": 4588,
      "mål": 4589,
      "säker": 4590,
      "ställ": 4591,
      "lätt": 4592,
      "bättre": 4593,
      "tillb": 4594,
      "fast": 4595,
      "best": 4596,
      "tycker": 4597,
      "god": 4598,
      "Med": 4599,
      "##iken": 4600,
      "Att": 4601,
      "##met": 4602,
      "Här": 4603,
      "##rekt": 4604,
      "dess": 4605,
      "just": 4606,
      "tre": 4607,
      "##åller": 4608,
      "##kv": 4609,
      "##lag": 4610,
      "skriv": 4611,
      "bästa": 4612,
      "##sson": 4613,
      "##ellt": 4614,
      "##upp": 4615,
      "Efter": 4616,
      "verkligen": 4617,
      "##ingar": 4618,
      "snabb": 4619,
      "##stem": 4620,
      "##orn": 4621,
      "pass": 4622,
      "pol": 4623,
      "sex": 4624,
      "ofta": 4625,
      "##skar": 4626,
      "##me": 4627,
      "eftersom": 4628,
      "gån": 4629,
      "val": 4630,
      "##ote": 4631,
      "##sv": 4632,
      "komma": 4633,
      "familj": 4634,
      "##min": 4635,
      "pen": 4636,
      "##ung": 4637,
      "##dom": 4638,
      "##empel": 4639,
      "mina": 4640,
      "dock": 4641,
      "bort": 4642,
      "fått": 4643,
      "##nader": 4644,
      "##ari": 4645,
      "förb": 4646,
      "##formation": 4647,
      "##lut": 4648,
      "##eci": 4649,
      "##orgon": 4650,
      "koll": 4651,
      "##amn": 4652,
      "veck": 4653,
      "kunde": 4654,
      "##ors": 4655,
      "ned": 4656,
      "##stad": 4657,
      "enda": 4658,
      "bok": 4659,
      "form": 4660,
      "plan": 4661,
      "Detta": 4662,
      "slä": 4663,
      "Ar": 4664,
      "##sammans": 4665,
      "##blem": 4666,
      "##ab": 4667,
      "##drig": 4668,
      "##rar": 4669,
      "ma": 4670,
      "##årt": 4671,
      "##cent": 4672,
      "##eri": 4673,
      "hör": 4674,
      "intress": 4675,
      "##ockholm": 4676,
      "mest": 4677,
      "gäller": 4678,
      "##jekt": 4679,
      "##nes": 4680,
      "##rik": 4681,
      "##iss": 4682,
      "läm": 4683,
      "##ionen": 4684,
      "skall": 4685,
      "##erat": 4686,
      "tiden": 4687,
      "kö": 4688,
      "on": 4689,
      "##gram": 4690,
      "tror": 4691,
      "tog": 4692,
      "##ina": 4693,
      "##kade": 4694,
      "##skil": 4695,
      "pre": 4696,
      "aldrig": 4697,
      "kör": 4698,
      "hopp": 4699,
      "kra": 4700,
      "str": 4701,
      "blog": 4702,
      "ge": 4703,
      "hus": 4704,
      "##iten": 4705,
      "konst": 4706,
      "##ektiv": 4707,
      "erb": 4708,
      "tidigare": 4709,
      "bak": 4710,
      "försö": 4711,
      "redan": 4712,
      "##giv": 4713,
      "gjort": 4714,
      "gam": 4715,
      "##ob": 4716,
      "##sför": 4717,
      "lå": 4718,
      "annan": 4719,
      "##son": 4720,
      "tim": 4721,
      "##mat": 4722,
      "hal": 4723,
      "deras": 4724,
      "lika": 4725,
      "enkel": 4726,
      "##hus": 4727,
      "##tem": 4728,
      "##öst": 4729,
      "exempel": 4730,
      "lik": 4731,
      "##omm": 4732,
      "län": 4733,
      "##far": 4734,
      "##rätt": 4735,
      "mö": 4736,
      "##ärk": 4737,
      "##pro": 4738,
      "##jud": 4739,
      "gjorde": 4740,
      "##lem": 4741,
      "##äder": 4742,
      "##hand": 4743,
      "##takt": 4744,
      "##idan": 4745,
      "Man": 4746,
      "tillsammans": 4747,
      "tillbaka": 4748,
      "##sf": 4749,
      "##uter": 4750,
      "##örd": 4751,
      "honom": 4752,
      "Jo": 4753,
      "full": 4754,
      "##tra": 4755,
      "Ett": 4756,
      "såd": 4757,
      "enligt": 4758,
      "##dre": 4759,
      "for": 4760,
      "besk": 4761,
      "##tar": 4762,
      "##borg": 4763,
      "speci": 4764,
      "Ch": 4765,
      "fler": 4766,
      "små": 4767,
      "människor": 4768,
      "hjälp": 4769,
      "fot": 4770,
      "Där": 4771,
      "##andet": 4772,
      "##red": 4773,
      "sak": 4774,
      "si": 4775,
      "kort": 4776,
      "Var": 4777,
      "Som": 4778,
      "##illa": 4779,
      "##amp": 4780,
      "##las": 4781,
      "##gör": 4782,
      "##gifter": 4783,
      "hemma": 4784,
      "red": 4785,
      "##assa": 4786,
      "berätt": 4787,
      "ditt": 4788,
      "##bar": 4789,
      "väg": 4790,
      "Stockholm": 4791,
      "hans": 4792,
      "kväll": 4793,
      "##ratis": 4794,
      "##heten": 4795,
      "##cis": 4796,
      "inv": 4797,
      "ändå": 4798,
      "ung": 4799,
      "##bo": 4800,
      "##berg": 4801,
      "kli": 4802,
      "##gå": 4803,
      "##ationer": 4804,
      "rå": 4805,
      "mindre": 4806,
      "bygg": 4807,
      "direkt": 4808,
      "information": 4809,
      "Till": 4810,
      "pris": 4811,
      "kost": 4812,
      "su": 4813,
      "komp": 4814,
      "##rott": 4815,
      "im": 4816,
      "möjlighet": 4817,
      "faktiskt": 4818,
      "##van": 4819,
      "##ubb": 4820,
      "##alen": 4821,
      "kvar": 4822,
      "natur": 4823,
      "kvinn": 4824,
      "lever": 4825,
      "##olag": 4826,
      "köp": 4827,
      "stad": 4828,
      "##rad": 4829,
      "väx": 4830,
      "##gru": 4831,
      "Hon": 4832,
      "##amma": 4833,
      "##ester": 4834,
      "##med": 4835,
      "##tligen": 4836,
      "problem": 4837,
      "trän": 4838,
      "ih": 4839,
      "svenska": 4840,
      "##bland": 4841,
      "##anden": 4842,
      "##skol": 4843,
      "ute": 4844,
      "##satt": 4845,
      "##ultat": 4846,
      "dina": 4847,
      "saker": 4848,
      "typ": 4849,
      "##bär": 4850,
      "##ings": 4851,
      "bilder": 4852,
      "##elsen": 4853,
      "säga": 4854,
      "##ård": 4855,
      "##erb": 4856,
      "kro": 4857,
      "dejting": 4858,
      "vatten": 4859,
      "##rist": 4860,
      "nytt": 4861,
      "##net": 4862,
      "##app": 4863,
      "mus": 4864,
      "##snitt": 4865,
      "##sy": 4866,
      "##ard": 4867,
      "id": 4868,
      "ganska": 4869,
      "nät": 4870,
      "##väg": 4871,
      "Under": 4872,
      "##plats": 4873,
      "##ind": 4874,
      "mark": 4875,
      "##ioner": 4876,
      "näst": 4877,
      "bru": 4878,
      "större": 4879,
      "pla": 4880,
      "po": 4881,
      "##ner": 4882,
      "##istor": 4883,
      "##fl": 4884,
      "##dagen": 4885,
      "jäm": 4886,
      "##tter": 4887,
      "##fall": 4888,
      "##ydd": 4889,
      "verksamhet": 4890,
      "##yt": 4891,
      "##iker": 4892,
      "områ": 4893,
      "##nu": 4894,
      "folk": 4895,
      "##nat": 4896,
      "##ivit": 4897,
      "bor": 4898,
      "dagen": 4899,
      "tur": 4900,
      "und": 4901,
      "##ebb": 4902,
      "##hör": 4903,
      "##iver": 4904,
      "Kan": 4905,
      "##drag": 4906,
      "##vä": 4907,
      "##orter": 4908,
      "liten": 4909,
      "känner": 4910,
      "använda": 4911,
      "##ata": 4912,
      "##ask": 4913,
      "äl": 4914,
      "henne": 4915,
      "svar": 4916,
      "te": 4917,
      "##stället": 4918,
      "enkelt": 4919,
      "sol": 4920,
      "##öv": 4921,
      "##spel": 4922,
      "rel": 4923,
      "##lan": 4924,
      "bild": 4925,
      "mm": 4926,
      "sjuk": 4927,
      "hitta": 4928,
      "##age": 4929,
      "Sp": 4930,
      "bo": 4931,
      "##ib": 4932,
      "##river": 4933,
      "följ": 4934,
      "##iva": 4935,
      "ingår": 4936,
      "hund": 4937,
      "dagar": 4938,
      "##häll": 4939,
      "##olog": 4940,
      "haft": 4941,
      "##alog": 4942,
      "pengar": 4943,
      "em": 4944,
      "##ppa": 4945,
      "öpp": 4946,
      "Ut": 4947,
      "står": 4948,
      "##vent": 4949,
      "##lek": 4950,
      "##ationen": 4951,
      "rör": 4952,
      "##edag": 4953,
      "##äns": 4954,
      "##ärna": 4955,
      "##ras": 4956,
      "träff": 4957,
      "##älj": 4958,
      "##uro": 4959,
      "känns": 4960,
      "##anis": 4961,
      "kont": 4962,
      "häl": 4963,
      "##slut": 4964,
      "##jus": 4965,
      "längre": 4966,
      "##bart": 4967,
      "##jur": 4968,
      "lan": 4969,
      "länge": 4970,
      "tjän": 4971,
      "°C": 4972,
      "##stånd": 4973,
      "precis": 4974,
      "ele": 4975,
      "Sv": 4976,
      "##ler": 4977,
      "Pro": 4978,
      "fi": 4979,
      "##lingen": 4980,
      "blivit": 4981,
      "##ister": 4982,
      "börjar": 4983,
      "##kr": 4984,
      "he": 4985,
      "##kor": 4986,
      "inför": 4987,
      "##vs": 4988,
      "sommar": 4989,
      "##pper": 4990,
      "##vr": 4991,
      "kontakt": 4992,
      "nästan": 4993,
      "ca": 4994,
      "fle": 4995,
      "Då": 4996,
      "värld": 4997,
      "titt": 4998,
      "namn": 4999,
      "beslut": 5000,
      "därför": 5001,
      "ja": 5002,
      "##illar": 5003,
      "Ja": 5004,
      "Mar": 5005,
      "lin": 5006,
      "Vad": 5007,
      "personer": 5008,
      "fel": 5009,
      "rum": 5010,
      "##farande": 5011,
      "##asin": 5012,
      "styr": 5013,
      "##öt": 5014,
      "##ära": 5015,
      "Idag": 5016,
      "##yll": 5017,
      "gratis": 5018,
      "innebär": 5019,
      "##idigt": 5020,
      "pres": 5021,
      "##konom": 5022,
      "Hur": 5023,
      "webb": 5024,
      "bestäm": 5025,
      "##ana": 5026,
      "##ekn": 5027,
      "stort": 5028,
      "sj": 5029,
      "##yl": 5030,
      "kn": 5031,
      "började": 5032,
      "Sam": 5033,
      "##alitet": 5034,
      "sär": 5035,
      "lycka": 5036,
      "##ligare": 5037,
      "##sin": 5038,
      "##iet": 5039,
      "inget": 5040,
      "##nal": 5041,
      "##tast": 5042,
      "kul": 5043,
      "##arl": 5044,
      "jätt": 5045,
      "match": 5046,
      "##lden": 5047,
      "Sen": 5048,
      "##ition": 5049,
      "medlem": 5050,
      "##ron": 5051,
      "##heter": 5052,
      "senare": 5053,
      "##öte": 5054,
      "gärna": 5055,
      "utbild": 5056,
      "##fil": 5057,
      "##peratur": 5058,
      "##ningarna": 5059,
      "##icka": 5060,
      "##enom": 5061,
      "##sikt": 5062,
      "##vensk": 5063,
      "istället": 5064,
      "##unkt": 5065,
      "##fin": 5066,
      "näm": 5067,
      "##fekt": 5068,
      "ännu": 5069,
      "##ukt": 5070,
      "behand": 5071,
      "part": 5072,
      "sov": 5073,
      "förm": 5074,
      "##ng": 5075,
      "eff": 5076,
      "senaste": 5077,
      "org": 5078,
      "##räck": 5079,
      "funger": 5080,
      "##kat": 5081,
      "fem": 5082,
      "erbju": 5083,
      "##erbörd": 5084,
      "stud": 5085,
      "km": 5086,
      "förl": 5087,
      "##ecka": 5088,
      "##ue": 5089,
      "##agen": 5090,
      "alltså": 5091,
      "fortfarande": 5092,
      "låg": 5093,
      "såg": 5094,
      "##inner": 5095,
      "antal": 5096,
      "familjen": 5097,
      "start": 5098,
      "##klar": 5099,
      "äg": 5100,
      "##dat": 5101,
      "fortsätt": 5102,
      "gott": 5103,
      "##lad": 5104,
      "##ny": 5105,
      "ekonom": 5106,
      "samhäll": 5107,
      "##ög": 5108,
      "##uss": 5109,
      "svårt": 5110,
      "via": 5111,
      "klass": 5112,
      "int": 5113,
      "Al": 5114,
      "vidare": 5115,
      "förstå": 5116,
      "dra": 5117,
      "intern": 5118,
      "sista": 5119,
      "extra": 5120,
      "##oc": 5121,
      "ob": 5122,
      "Är": 5123,
      "##alm": 5124,
      "Re": 5125,
      "##kommen": 5126,
      "hennes": 5127,
      "visar": 5128,
      "satt": 5129,
      "program": 5130,
      "Kon": 5131,
      "betal": 5132,
      "##eln": 5133,
      "Min": 5134,
      "Joh": 5135,
      "##ften": 5136,
      "Upp": 5137,
      "##iter": 5138,
      "##fäll": 5139,
      "##igheter": 5140,
      "##män": 5141,
      "kred": 5142,
      "disk": 5143,
      "##anter": 5144,
      "stöd": 5145,
      "köpa": 5146,
      "stan": 5147,
      "håller": 5148,
      "ihop": 5149,
      "särskil": 5150,
      "soci": 5151,
      "loka": 5152,
      "tje": 5153,
      "##räd": 5154,
      "gånger": 5155,
      "##önt": 5156,
      "by": 5157,
      "##by": 5158,
      "resultat": 5159,
      "framför": 5160,
      "bed": 5161,
      "vissa": 5162,
      "flytt": 5163,
      "mis": 5164,
      "vilken": 5165,
      "##ternativ": 5166,
      "Vid": 5167,
      "Br": 5168,
      "art": 5169,
      "##ember": 5170,
      "bel": 5171,
      "##rade": 5172,
      "ansvar": 5173,
      "läsa": 5174,
      "Ska": 5175,
      "##vin": 5176,
      "polit": 5177,
      "film": 5178,
      "projekt": 5179,
      "##otell": 5180,
      "##ips": 5181,
      "jul": 5182,
      "Ma": 5183,
      "##ivt": 5184,
      "samtidigt": 5185,
      "vårt": 5186,
      "kron": 5187,
      "##elser": 5188,
      "hålla": 5189,
      "##ostad": 5190,
      "nästa": 5191,
      "eg": 5192,
      "snart": 5193,
      "vilka": 5194,
      "##ygga": 5195,
      "gra": 5196,
      "ka": 5197,
      "##ice": 5198,
      "vack": 5199,
      "##ppar": 5200,
      "ville": 5201,
      "##ren": 5202,
      "##ite": 5203,
      "rad": 5204,
      "##line": 5205,
      "##res": 5206,
      "lö": 5207,
      "##ider": 5208,
      "##kan": 5209,
      "##pen": 5210,
      "##of": 5211,
      "fantast": 5212,
      "histor": 5213,
      "##ynd": 5214,
      "##oner": 5215,
      "##rakten": 5216,
      "halv": 5217,
      "##sättning": 5218,
      "sett": 5219,
      "##derna": 5220,
      "helst": 5221,
      "##uta": 5222,
      "möjligt": 5223,
      "go": 5224,
      "medel": 5225,
      "cent": 5226,
      "##änk": 5227,
      "ins": 5228,
      "samman": 5229,
      "timmar": 5230,
      "tekn": 5231,
      "tex": 5232,
      "Vis": 5233,
      "finans": 5234,
      "##unn": 5235,
      "endast": 5236,
      "off": 5237,
      "##köp": 5238,
      "##ct": 5239,
      "klar": 5240,
      "##öjd": 5241,
      "nära": 5242,
      "blogg": 5243,
      "År": 5244,
      "landet": 5245,
      "tyd": 5246,
      "delen": 5247,
      "hittar": 5248,
      "##gel": 5249,
      "meter": 5250,
      "procent": 5251,
      "hjär": 5252,
      "##gär": 5253,
      "list": 5254,
      "ren": 5255,
      "största": 5256,
      "mass": 5257,
      "##uk": 5258,
      "kvinnor": 5259,
      "##ux": 5260,
      "förut": 5261,
      "ste": 5262,
      "gamla": 5263,
      "##spro": 5264,
      "Alla": 5265,
      "##cker": 5266,
      "kär": 5267,
      "##sch": 5268,
      "Av": 5269,
      "snabbt": 5270,
      "flesta": 5271,
      "##över": 5272,
      "##ckte": 5273,
      "använder": 5274,
      "##iner": 5275,
      "kons": 5276,
      "##lats": 5277,
      "vecka": 5278,
      "Fin": 5279,
      "##mark": 5280,
      "hoppas": 5281,
      "bety": 5282,
      "månaden": 5283,
      "##sst": 5284,
      "##lade": 5285,
      "##erial": 5286,
      "täv": 5287,
      "##ås": 5288,
      "morgon": 5289,
      "ind": 5290,
      "stat": 5291,
      "talet": 5292,
      "fyra": 5293,
      "handlar": 5294,
      "dessutom": 5295,
      "##fär": 5296,
      "##band": 5297,
      "kredit": 5298,
      "minuter": 5299,
      "själva": 5300,
      "Genom": 5301,
      "året": 5302,
      "##gon": 5303,
      "spela": 5304,
      "##ore": 5305,
      "minst": 5306,
      "##äkt": 5307,
      "män": 5308,
      "fina": 5309,
      "##ert": 5310,
      "##ultur": 5311,
      "##andra": 5312,
      "##rån": 5313,
      "bad": 5314,
      "sitter": 5315,
      "far": 5316,
      "behov": 5317,
      "##elef": 5318,
      "klart": 5319,
      "skolan": 5320,
      "arbete": 5321,
      "börja": 5322,
      "##peraturen": 5323,
      "Le": 5324,
      "el": 5325,
      "##ita": 5326,
      "##klart": 5327,
      "##ont": 5328,
      "va": 5329,
      "##idor": 5330,
      "viktigt": 5331,
      "spr": 5332,
      "##etter": 5333,
      "egna": 5334,
      "sag": 5335,
      "skriva": 5336,
      "kna": 5337,
      "ytter": 5338,
      "##cess": 5339,
      "gången": 5340,
      "släkt": 5341,
      "gått": 5342,
      "främ": 5343,
      "ens": 5344,
      "##ift": 5345,
      "##its": 5346,
      "##ifrån": 5347,
      "varför": 5348,
      "##råk": 5349,
      "frågor": 5350,
      "tills": 5351,
      "funktion": 5352,
      "ljus": 5353,
      "##ons": 5354,
      "ibland": 5355,
      "##ivet": 5356,
      "##err": 5357,
      "##ubli": 5358,
      "världen": 5359,
      "##varande": 5360,
      "##ral": 5361,
      "##äster": 5362,
      "##ay": 5363,
      "mar": 5364,
      "räk": 5365,
      "egentligen": 5366,
      "trev": 5367,
      "##igaste": 5368,
      "##esk": 5369,
      "##ndag": 5370,
      "##ograf": 5371,
      "kur": 5372,
      "borde": 5373,
      "lu": 5374,
      "utt": 5375,
      "##förs": 5376,
      "met": 5377,
      "färg": 5378,
      "lägga": 5379,
      "veckan": 5380,
      "##tta": 5381,
      "åka": 5382,
      "##yp": 5383,
      "##ins": 5384,
      "vanligt": 5385,
      "före": 5386,
      "##dar": 5387,
      "star": 5388,
      "ol": 5389,
      "emot": 5390,
      "början": 5391,
      "##ater": 5392,
      "##val": 5393,
      "glad": 5394,
      "låt": 5395,
      "Tr": 5396,
      "brukar": 5397,
      "långt": 5398,
      "##our": 5399,
      "##fråg": 5400,
      "##bara": 5401,
      "##ffär": 5402,
      "sidan": 5403,
      "tor": 5404,
      "äld": 5405,
      "trots": 5406,
      "##ivå": 5407,
      "Ny": 5408,
      "##itu": 5409,
      "##istr": 5410,
      "tänka": 5411,
      "kap": 5412,
      "##ument": 5413,
      "kring": 5414,
      "Se": 5415,
      "##verka": 5416,
      "övr": 5417,
      "##ölj": 5418,
      "fanns": 5419,
      "##sida": 5420,
      "##SA": 5421,
      "##vid": 5422,
      "##port": 5423,
      "ön": 5424,
      "##nande": 5425,
      "välja": 5426,
      "##håller": 5427,
      "inlägg": 5428,
      "organis": 5429,
      "alternativ": 5430,
      "syn": 5431,
      "upplev": 5432,
      "##gift": 5433,
      "heller": 5434,
      "Mo": 5435,
      "bid": 5436,
      "massa": 5437,
      "##drar": 5438,
      "##lla": 5439,
      "##öteborg": 5440,
      "Ber": 5441,
      "föräl": 5442,
      "##okus": 5443,
      "pos": 5444,
      "kor": 5445,
      "##ian": 5446,
      "ener": 5447,
      "arbets": 5448,
      "verkar": 5449,
      "mamma": 5450,
      "skapa": 5451,
      "igår": 5452,
      "hår": 5453,
      "##äss": 5454,
      "ovan": 5455,
      "##mäl": 5456,
      "cy": 5457,
      "erf": 5458,
      "##temperaturen": 5459,
      "Inte": 5460,
      "sh": 5461,
      "Även": 5462,
      "sma": 5463,
      "samarbet": 5464,
      "förv": 5465,
      "##sol": 5466,
      "##ond": 5467,
      "Hel": 5468,
      "##ännande": 5469,
      "##ikat": 5470,
      "fören": 5471,
      "system": 5472,
      "##sak": 5473,
      "##elefon": 5474,
      "kontro": 5475,
      "lug": 5476,
      "gillar": 5477,
      "ab": 5478,
      "##ge": 5479,
      "##vänd": 5480,
      "##åd": 5481,
      "utveckling": 5482,
      "delar": 5483,
      "##ämt": 5484,
      "perfekt": 5485,
      "Denna": 5486,
      "##uella": 5487,
      "bas": 5488,
      "kronor": 5489,
      "##äkring": 5490,
      "stå": 5491,
      "allmän": 5492,
      "##ruk": 5493,
      "tem": 5494,
      "##ocka": 5495,
      "skriver": 5496,
      "Sedan": 5497,
      "tack": 5498,
      "##ou": 5499,
      "##omen": 5500,
      "jan": 5501,
      "##pe": 5502,
      "##rikt": 5503,
      "inga": 5504,
      "##andel": 5505,
      "##märk": 5506,
      "##yss": 5507,
      "##spr": 5508,
      "##ivitet": 5509,
      "medan": 5510,
      "maj": 5511,
      "hotell": 5512,
      "##lingar": 5513,
      "##inna": 5514,
      "lilla": 5515,
      "##ke": 5516,
      "alls": 5517,
      "##ometer": 5518,
      "kommit": 5519,
      "##ändr": 5520,
      "jämför": 5521,
      "The": 5522,
      "skicka": 5523,
      "lös": 5524,
      "livet": 5525,
      "tillg": 5526,
      "##one": 5527,
      "miljö": 5528,
      "ring": 5529,
      "tillfäll": 5530,
      "##cept": 5531,
      "##ställning": 5532,
      "svensk": 5533,
      "ögon": 5534,
      "##ran": 5535,
      "##ora": 5536,
      "##ckt": 5537,
      "##iddag": 5538,
      "##ängen": 5539,
      "##väx": 5540,
      "utanför": 5541,
      "Inga": 5542,
      "##uari": 5543,
      "besök": 5544,
      "##fri": 5545,
      "##orer": 5546,
      "Des": 5547,
      "##amm": 5548,
      "sagt": 5549,
      "ban": 5550,
      "forsk": 5551,
      "##uld": 5552,
      "##vor": 5553,
      "död": 5554,
      "Euro": 5555,
      "##enskap": 5556,
      "tot": 5557,
      "##lat": 5558,
      "##tera": 5559,
      "online": 5560,
      "känna": 5561,
      "gre": 5562,
      "##sök": 5563,
      "äta": 5564,
      "nederbörd": 5565,
      "##örer": 5566,
      "hjälpa": 5567,
      "##arter": 5568,
      "##rag": 5569,
      "kund": 5570,
      "mode": 5571,
      "träd": 5572,
      "Vil": 5573,
      "##ummer": 5574,
      "##lick": 5575,
      "##dern": 5576,
      "##sc": 5577,
      "produkter": 5578,
      "##ER": 5579,
      "erbjuder": 5580,
      "dags": 5581,
      "kopp": 5582,
      "rik": 5583,
      "##oende": 5584,
      "Kom": 5585,
      "##ret": 5586,
      "##bund": 5587,
      "##kän": 5588,
      "##bud": 5589,
      "##ivers": 5590,
      "genomför": 5591,
      "kräv": 5592,
      "roligt": 5593,
      "##ärkt": 5594,
      "##juk": 5595,
      "Ex": 5596,
      "januari": 5597,
      "gar": 5598,
      "##bygg": 5599,
      "båda": 5600,
      "erfaren": 5601,
      "##bin": 5602,
      "##up": 5603,
      "tagit": 5604,
      "##rukt": 5605,
      "tänker": 5606,
      "##ädd": 5607,
      "vide": 5608,
      "fråga": 5609,
      "varandra": 5610,
      "##maste": 5611,
      "##rafik": 5612,
      "äldre": 5613,
      "månader": 5614,
      "kraft": 5615,
      "##kla": 5616,
      "##revs": 5617,
      "##smedel": 5618,
      "års": 5619,
      "##kad": 5620,
      "##ilja": 5621,
      "##ilometer": 5622,
      "##asino": 5623,
      "särskilt": 5624,
      "visa": 5625,
      "Cat": 5626,
      "igenom": 5627,
      "mobil": 5628,
      "inter": 5629,
      "åkte": 5630,
      "musik": 5631,
      "resp": 5632,
      "##iden": 5633,
      "##sett": 5634,
      "bäst": 5635,
      "Tro": 5636,
      "flyg": 5637,
      "slag": 5638,
      "##ium": 5639,
      "Bl": 5640,
      "varm": 5641,
      "arbetar": 5642,
      "##reg": 5643,
      "##full": 5644,
      "topp": 5645,
      "Läs": 5646,
      "utför": 5647,
      "fokus": 5648,
      "the": 5649,
      "kvalitet": 5650,
      "##gård": 5651,
      "Någ": 5652,
      "försöka": 5653,
      "##dera": 5654,
      "häst": 5655,
      "priv": 5656,
      "##kväll": 5657,
      "prat": 5658,
      "##ober": 5659,
      "Allt": 5660,
      "kyr": 5661,
      "Sex": 5662,
      "##eh": 5663,
      "bred": 5664,
      "passar": 5665,
      "##ital": 5666,
      "inst": 5667,
      "##tan": 5668,
      "##verket": 5669,
      "Sveriges": 5670,
      "veta": 5671,
      "trött": 5672,
      "vägen": 5673,
      "##af": 5674,
      "##ström": 5675,
      "bar": 5676,
      "bö": 5677,
      "Or": 5678,
      "älskar": 5679,
      "Vill": 5680,
      "insp": 5681,
      "föd": 5682,
      "Dess": 5683,
      "##från": 5684,
      "Göteborg": 5685,
      "##ena": 5686,
      "##boll": 5687,
      "##värr": 5688,
      "##pass": 5689,
      "##ko": 5690,
      "Ha": 5691,
      "sem": 5692,
      "uppt": 5693,
      "gem": 5694,
      "co": 5695,
      "##ansk": 5696,
      "##én": 5697,
      "##isen": 5698,
      "händer": 5699,
      "gener": 5700,
      "träning": 5701,
      "sån": 5702,
      "##ong": 5703,
      "lån": 5704,
      "pat": 5705,
      "sätta": 5706,
      "otro": 5707,
      "##eta": 5708,
      "vänner": 5709,
      "publi": 5710,
      "##öka": 5711,
      "läs": 5712,
      "##aket": 5713,
      "elever": 5714,
      "fint": 5715,
      "Th": 5716,
      "##agn": 5717,
      "##ife": 5718,
      "##ystem": 5719,
      "produkt": 5720,
      "Bil": 5721,
      "Ty": 5722,
      "säkert": 5723,
      "##ies": 5724,
      "sida": 5725,
      "trans": 5726,
      "omfatt": 5727,
      "##anc": 5728,
      "tra": 5729,
      "pop": 5730,
      "lägen": 5731,
      "##kur": 5732,
      "dec": 5733,
      "regn": 5734,
      "ål": 5735,
      "but": 5736,
      "##staur": 5737,
      "##unda": 5738,
      "trakten": 5739,
      "affär": 5740,
      "jobbet": 5741,
      "stund": 5742,
      "ad": 5743,
      "rapp": 5744,
      "veckor": 5745,
      "säkerhet": 5746,
      "bef": 5747,
      "dit": 5748,
      "et": 5749,
      "tips": 5750,
      "##vice": 5751,
      "stu": 5752,
      "##kort": 5753,
      "tan": 5754,
      "havet": 5755,
      "äm": 5756,
      "Fl": 5757,
      "And": 5758,
      "haha": 5759,
      "##oss": 5760,
      "häls": 5761,
      "##mb": 5762,
      "förra": 5763,
      "##sla": 5764,
      "Per": 5765,
      "vård": 5766,
      "##jör": 5767,
      "##ängd": 5768,
      "##fer": 5769,
      "##åga": 5770,
      "skönt": 5771,
      "ifrån": 5772,
      "kunder": 5773,
      "##emang": 5774,
      "##uff": 5775,
      "bostad": 5776,
      "##skott": 5777,
      "används": 5778,
      "##uni": 5779,
      "me": 5780,
      "fix": 5781,
      "risk": 5782,
      "fatt": 5783,
      "säson": 5784,
      "framtid": 5785,
      "ytterligare": 5786,
      "##kra": 5787,
      "Life": 5788,
      "##int": 5789,
      "##sområ": 5790,
      "prakt": 5791,
      "##usk": 5792,
      "##ugust": 5793,
      "posit": 5794,
      "rekommen": 5795,
      "##saj": 5796,
      "släktet": 5797,
      "##ält": 5798,
      "grupp": 5799,
      "sc": 5800,
      "artik": 5801,
      "marknad": 5802,
      "##önster": 5803,
      "spelar": 5804,
      "AB": 5805,
      "fungerar": 5806,
      "vanliga": 5807,
      "bek": 5808,
      "råd": 5809,
      "##EN": 5810,
      "kunskap": 5811,
      "post": 5812,
      "förslag": 5813,
      "betala": 5814,
      "##okrat": 5815,
      "mil": 5816,
      "##älla": 5817,
      "##ämp": 5818,
      "to": 5819,
      "beskrevs": 5820,
      "Lin": 5821,
      "##ledning": 5822,
      "##plan": 5823,
      "##ension": 5824,
      "##iz": 5825,
      "##staden": 5826,
      "skill": 5827,
      "##ansen": 5828,
      "skap": 5829,
      "him": 5830,
      "ham": 5831,
      "##als": 5832,
      "norm": 5833,
      "liksom": 5834,
      "kat": 5835,
      "cir": 5836,
      "ben": 5837,
      "nå": 5838,
      "kultur": 5839,
      "##lö": 5840,
      "lyss": 5841,
      "##efär": 5842,
      "lära": 5843,
      "##ille": 5844,
      "fredag": 5845,
      "##iella": 5846,
      "rö": 5847,
      "indiv": 5848,
      "##ign": 5849,
      "##splats": 5850,
      "bolag": 5851,
      "roll": 5852,
      "bakom": 5853,
      "##kn": 5854,
      "test": 5855,
      "dri": 5856,
      "mor": 5857,
      "##jö": 5858,
      "djur": 5859,
      "tänkte": 5860,
      "mör": 5861,
      "uppf": 5862,
      "##örj": 5863,
      "Pr": 5864,
      "underarter": 5865,
      "månad": 5866,
      "nag": 5867,
      "bill": 5868,
      "jord": 5869,
      "So": 5870,
      "material": 5871,
      "nord": 5872,
      "vak": 5873,
      "lör": 5874,
      "juli": 5875,
      "lugn": 5876,
      "USA": 5877,
      "##unch": 5878,
      "högre": 5879,
      "jobba": 5880,
      "listade": 5881,
      "förbätt": 5882,
      "##dags": 5883,
      "Eller": 5884,
      "knapp": 5885,
      "området": 5886,
      "##dde": 5887,
      "Dessutom": 5888,
      "ungdom": 5889,
      "barnen": 5890,
      "##len": 5891,
      "vux": 5892,
      "inspir": 5893,
      "spännande": 5894,
      "nov": 5895,
      "blå": 5896,
      "##olv": 5897,
      "##mal": 5898,
      "lad": 5899,
      "##ism": 5900,
      "reger": 5901,
      "Ne": 5902,
      "dy": 5903,
      "##grund": 5904,
      "telefon": 5905,
      "##ac": 5906,
      "energi": 5907,
      "##alogue": 5908,
      "##ry": 5909,
      "effektiv": 5910,
      "läk": 5911,
      "##ps": 5912,
      "##styr": 5913,
      "Catalogue": 5914,
      "fördel": 5915,
      "##jut": 5916,
      "gym": 5917,
      "favor": 5918,
      "fisk": 5919,
      "##ity": 5920,
      "##jting": 5921,
      "skydd": 5922,
      "##rog": 5923,
      "värde": 5924,
      "##ix": 5925,
      "krav": 5926,
      "anställ": 5927,
      "igång": 5928,
      "Mer": 5929,
      "super": 5930,
      "tank": 5931,
      "ant": 5932,
      "innehåller": 5933,
      "##ärt": 5934,
      "##efter": 5935,
      "##emot": 5936,
      "##arnas": 5937,
      "säll": 5938,
      "##ah": 5939,
      "##väl": 5940,
      "tom": 5941,
      "sådan": 5942,
      "beg": 5943,
      "##ockan": 5944,
      "ej": 5945,
      "vit": 5946,
      "kvällen": 5947,
      "##igheten": 5948,
      "la": 5949,
      "##ogen": 5950,
      "genomsnitt": 5951,
      "##ator": 5952,
      "goda": 5953,
      "åren": 5954,
      "##derar": 5955,
      "Kl": 5956,
      "Bo": 5957,
      "tred": 5958,
      "##itter": 5959,
      "utbildning": 5960,
      "EU": 5961,
      "##terna": 5962,
      "##ine": 5963,
      "uppgifter": 5964,
      "uppdrag": 5965,
      "bal": 5966,
      "##avsett": 5967,
      "Dessa": 5968,
      "vem": 5969,
      "följa": 5970,
      "helgen": 5971,
      "El": 5972,
      "söker": 5973,
      "anal": 5974,
      "situ": 5975,
      "##jen": 5976,
      "##samma": 5977,
      "kam": 5978,
      "##ive": 5979,
      "följande": 5980,
      "event": 5981,
      "##any": 5982,
      "tillgäng": 5983,
      "Ander": 5984,
      "mys": 5985,
      "kropp": 5986,
      "funder": 5987,
      "natt": 5988,
      "gav": 5989,
      "##atan": 5990,
      "##igh": 5991,
      "##skolan": 5992,
      "försöker": 5993,
      "förhåll": 5994,
      "##ugusti": 5995,
      "juni": 5996,
      "kolla": 5997,
      "##IN": 5998,
      "##be": 5999,
      "##aga": 6000,
      "##ovis": 6001,
      "fyll": 6002,
      "hjälper": 6003,
      "##syk": 6004,
      "##delse": 6005,
      "Dan": 6006,
      "minska": 6007,
      "iväg": 6008,
      "avslut": 6009,
      "presenter": 6010,
      "utom": 6011,
      "heter": 6012,
      "invån": 6013,
      "Sh": 6014,
      "väljer": 6015,
      "skatt": 6016,
      "##olen": 6017,
      "inkl": 6018,
      "##AR": 6019,
      "Gu": 6020,
      "##ugg": 6021,
      "##öll": 6022,
      "ungefär": 6023,
      "erbjud": 6024,
      "vart": 6025,
      "##lands": 6026,
      "##itut": 6027,
      "tyckte": 6028,
      "består": 6029,
      "##oder": 6030,
      "innehåll": 6031,
      "stra": 6032,
      "plac": 6033,
      "aktivitet": 6034,
      "##alla": 6035,
      "restaur": 6036,
      "förändr": 6037,
      "com": 6038,
      "yr": 6039,
      "Un": 6040,
      "##bok": 6041,
      "##deles": 6042,
      "tj": 6043,
      "tredje": 6044,
      "popul": 6045,
      "##gående": 6046,
      "##vänt": 6047,
      "Komm": 6048,
      "##ton": 6049,
      "sker": 6050,
      "kläder": 6051,
      "##åk": 6052,
      "mon": 6053,
      "känsl": 6054,
      "Svenska": 6055,
      "##ern": 6056,
      "##äker": 6057,
      "Väl": 6058,
      "Res": 6059,
      "skär": 6060,
      "Malm": 6061,
      "augusti": 6062,
      "##ey": 6063,
      "##kring": 6064,
      "eget": 6065,
      "webbplats": 6066,
      "##stående": 6067,
      "##ide": 6068,
      "##iversitet": 6069,
      "##entar": 6070,
      "driv": 6071,
      "Många": 6072,
      "##vik": 6073,
      "##lex": 6074,
      "dör": 6075,
      "nätet": 6076,
      "##räff": 6077,
      "slutet": 6078,
      "stod": 6079,
      "boken": 6080,
      "imorgon": 6081,
      "kroppen": 6082,
      "bi": 6083,
      "nation": 6084,
      "förh": 6085,
      "##saker": 6086,
      "åtgär": 6087,
      "Gr": 6088,
      "speciellt": 6089,
      "resa": 6090,
      "otroligt": 6091,
      "ok": 6092,
      "##ake": 6093,
      "##askin": 6094,
      "pri": 6095,
      "jobbar": 6096,
      "fri": 6097,
      "##egor": 6098,
      "gemens": 6099,
      "##åra": 6100,
      "okt": 6101,
      "##skatt": 6102,
      "steg": 6103,
      "##ork": 6104,
      "sep": 6105,
      "spelare": 6106,
      "mars": 6107,
      "teck": 6108,
      "Kanske": 6109,
      "stäm": 6110,
      "bud": 6111,
      "##eringen": 6112,
      "##ansch": 6113,
      "sli": 6114,
      "##rust": 6115,
      "##tember": 6116,
      "##uppgifter": 6117,
      "##verkar": 6118,
      "vilja": 6119,
      "färd": 6120,
      "miljoner": 6121,
      "##ligtvis": 6122,
      "anmäl": 6123,
      "##ich": 6124,
      "klubb": 6125,
      "beskriv": 6126,
      "##ycka": 6127,
      "TV": 6128,
      "Ste": 6129,
      "##områ": 6130,
      "##bel": 6131,
      "##öts": 6132,
      "dröm": 6133,
      "invånare": 6134,
      "arbeta": 6135,
      "samband": 6136,
      "Karl": 6137,
      "alldeles": 6138,
      "##jöl": 6139,
      "##gräns": 6140,
      "Ta": 6141,
      "bit": 6142,
      "##llen": 6143,
      "Tack": 6144,
      "no": 6145,
      "lämna": 6146,
      "Gud": 6147,
      "effekt": 6148,
      "kar": 6149,
      "dju": 6150,
      "högsta": 6151,
      "nöd": 6152,
      "##sut": 6153,
      "låter": 6154,
      "##AN": 6155,
      "prov": 6156,
      "titta": 6157,
      "säl": 6158,
      "beställ": 6159,
      "syd": 6160,
      "ske": 6161,
      "personal": 6162,
      "användas": 6163,
      "bilden": 6164,
      "link": 6165,
      "##ernas": 6166,
      "tvätt": 6167,
      "miss": 6168,
      "##pet": 6169,
      "##stid": 6170,
      "detal": 6171,
      "##ph": 6172,
      "behövs": 6173,
      "feb": 6174,
      "annars": 6175,
      "##otten": 6176,
      "rän": 6177,
      "absol": 6178,
      "wid": 6179,
      "Be": 6180,
      "##uell": 6181,
      "##ägen": 6182,
      "sitta": 6183,
      "do": 6184,
      "pe": 6185,
      "svår": 6186,
      "##kta": 6187,
      "utman": 6188,
      "##öna": 6189,
      "##uellt": 6190,
      "##äver": 6191,
      "##sidan": 6192,
      "Em": 6193,
      "punkt": 6194,
      "fortsätta": 6195,
      "registr": 6196,
      "nedan": 6197,
      "glas": 6198,
      "försv": 6199,
      "betyder": 6200,
      "glöm": 6201,
      "oftast": 6202,
      "svart": 6203,
      "köpte": 6204,
      "##fta": 6205,
      "##utt": 6206,
      "##nam": 6207,
      "september": 6208,
      "grä": 6209,
      "##förande": 6210,
      "Fast": 6211,
      "uppdat": 6212,
      "tjej": 6213,
      "mag": 6214,
      "##omenad": 6215,
      "kombin": 6216,
      "##part": 6217,
      "vatt": 6218,
      "skrev": 6219,
      "Mat": 6220,
      "ac": 6221,
      "##öter": 6222,
      "##anna": 6223,
      "Enligt": 6224,
      "##betal": 6225,
      "##oj": 6226,
      "menar": 6227,
      "inf": 6228,
      "frågan": 6229,
      "##onus": 6230,
      "##end": 6231,
      "deltag": 6232,
      "##enn": 6233,
      "##kas": 6234,
      "unga": 6235,
      "##tor": 6236,
      "##zny": 6237,
      "##alet": 6238,
      "nämligen": 6239,
      "bilen": 6240,
      "Ad": 6241,
      "dla": 6242,
      "##ffe": 6243,
      "##anych": 6244,
      "##okument": 6245,
      "##oczny": 6246,
      "##owanych": 6247,
      "zalog": 6248,
      "widoczny": 6249,
      "zalogowanych": 6250,
      "avtal": 6251,
      "##köping": 6252,
      "##sel": 6253,
      "december": 6254,
      "internation": 6255,
      "kvad": 6256,
      "porr": 6257,
      "##skaper": 6258,
      "idé": 6259,
      "##skydd": 6260,
      "##oo": 6261,
      "Sö": 6262,
      "cm": 6263,
      "lunch": 6264,
      "bär": 6265,
      "mots": 6266,
      "nivå": 6267,
      "köra": 6268,
      "lokal": 6269,
      "Ni": 6270,
      "##står": 6271,
      "log": 6272,
      "trad": 6273,
      "oktober": 6274,
      "##öja": 6275,
      "##olit": 6276,
      "Just": 6277,
      "##mare": 6278,
      "kvadrat": 6279,
      "skad": 6280,
      "huvudsak": 6281,
      "lov": 6282,
      "##vård": 6283,
      "##lös": 6284,
      "##ach": 6285,
      "krävs": 6286,
      "##pril": 6287,
      "Arbet": 6288,
      "##ången": 6289,
      "Sm": 6290,
      "deb": 6291,
      "världens": 6292,
      "omkring": 6293,
      "##itta": 6294,
      "pappa": 6295,
      "##ruari": 6296,
      "privat": 6297,
      "fly": 6298,
      "liknande": 6299,
      "##sned": 6300,
      "##sav": 6301,
      "åker": 6302,
      "hy": 6303,
      "##alis": 6304,
      "erfarenhet": 6305,
      "##värd": 6306,
      "##merik": 6307,
      "berättar": 6308,
      "##ämnd": 6309,
      "tjänster": 6310,
      "träffa": 6311,
      "##for": 6312,
      "Ser": 6313,
      "##allt": 6314,
      "##enser": 6315,
      "##komst": 6316,
      "kol": 6317,
      "##komm": 6318,
      "klockan": 6319,
      "dejtingsaj": 6320,
      "kände": 6321,
      "huvudstaden": 6322,
      "##handling": 6323,
      "nån": 6324,
      "ton": 6325,
      "därmed": 6326,
      "##bolag": 6327,
      "vackra": 6328,
      "##dem": 6329,
      "förstår": 6330,
      "##arm": 6331,
      "##råd": 6332,
      "blod": 6333,
      "bygga": 6334,
      "##ure": 6335,
      "finnas": 6336,
      "behandling": 6337,
      "fest": 6338,
      "Därför": 6339,
      "Från": 6340,
      "intressant": 6341,
      "arbetet": 6342,
      "eng": 6343,
      "viss": 6344,
      "tänkt": 6345,
      "##bord": 6346,
      "dans": 6347,
      "fortsatt": 6348,
      "november": 6349,
      "sova": 6350,
      "##fte": 6351,
      "Ro": 6352,
      "exempelvis": 6353,
      "tio": 6354,
      "Stor": 6355,
      "Eftersom": 6356,
      "##rateg": 6357,
      "##pres": 6358,
      "##imeter": 6359,
      "länder": 6360,
      "##juta": 6361,
      "februari": 6362,
      "märk": 6363,
      "tillgång": 6364,
      "betyd": 6365,
      "##inci": 6366,
      "förr": 6367,
      "internet": 6368,
      "Fa": 6369,
      "Ol": 6370,
      "spar": 6371,
      "##co": 6372,
      "behöva": 6373,
      "defin": 6374,
      "##unnit": 6375,
      "##ativt": 6376,
      "snygg": 6377,
      "böcker": 6378,
      "lägger": 6379,
      "stark": 6380,
      "fruk": 6381,
      "##splan": 6382,
      "invester": 6383,
      "beroende": 6384,
      "spring": 6385,
      "##ekom": 6386,
      "Kv": 6387,
      "Hen": 6388,
      "##äcker": 6389,
      "prata": 6390,
      "ljud": 6391,
      "dö": 6392,
      "fjär": 6393,
      "Vår": 6394,
      "##fess": 6395,
      "engel": 6396,
      "kärlek": 6397,
      "##rym": 6398,
      "bedöm": 6399,
      "fys": 6400,
      "Par": 6401,
      "stil": 6402,
      "##ruktur": 6403,
      "Nord": 6404,
      "sommaren": 6405,
      "tjejer": 6406,
      "låta": 6407,
      "börjat": 6408,
      "poäng": 6409,
      "##eder": 6410,
      "##repp": 6411,
      "##sättningar": 6412,
      "psyk": 6413,
      "text": 6414,
      "mynd": 6415,
      "allvar": 6416,
      "sjukdom": 6417,
      "Dag": 6418,
      "lev": 6419,
      "cirka": 6420,
      "regel": 6421,
      "stol": 6422,
      "##otek": 6423,
      "gu": 6424,
      "utm": 6425,
      "följer": 6426,
      "##ish": 6427,
      "##ativa": 6428,
      "gammal": 6429,
      "Vär": 6430,
      "##äcka": 6431,
      "##produ": 6432,
      "##tering": 6433,
      "krit": 6434,
      "##onen": 6435,
      "våg": 6436,
      "##ban": 6437,
      "skra": 6438,
      "gäll": 6439,
      "##yld": 6440,
      "torra": 6441,
      "absolut": 6442,
      "dagens": 6443,
      "Pa": 6444,
      "visade": 6445,
      "frukost": 6446,
      "##LL": 6447,
      "casino": 6448,
      "dubb": 6449,
      "middag": 6450,
      "Fil": 6451,
      "främst": 6452,
      "##bruk": 6453,
      "misst": 6454,
      "kommunen": 6455,
      "ålder": 6456,
      "##amen": 6457,
      "##gården": 6458,
      "Sw": 6459,
      "behöv": 6460,
      "app": 6461,
      "oro": 6462,
      "Själv": 6463,
      "##skan": 6464,
      "höll": 6465,
      "ena": 6466,
      "##verkan": 6467,
      "författ": 6468,
      "##ören": 6469,
      "##po": 6470,
      "personliga": 6471,
      "fullt": 6472,
      "övriga": 6473,
      "##erande": 6474,
      "##mor": 6475,
      "Tv": 6476,
      "fre": 6477,
      "filmen": 6478,
      "##icin": 6479,
      "##syn": 6480,
      "klara": 6481,
      "brott": 6482,
      "##isar": 6483,
      "kal": 6484,
      "##tat": 6485,
      "fört": 6486,
      "öppna": 6487,
      "favorit": 6488,
      "sådana": 6489,
      "april": 6490,
      "platser": 6491,
      "höra": 6492,
      "fortsätter": 6493,
      "tillräck": 6494,
      "##otter": 6495,
      "tidigt": 6496,
      "tyvärr": 6497,
      "##ändigt": 6498,
      "hyr": 6499,
      "nöjd": 6500,
      "ensam": 6501,
      "public": 6502,
      "##san": 6503,
      "närheten": 6504,
      "social": 6505,
      "##iel": 6506,
      "##ierna": 6507,
      "skog": 6508,
      "service": 6509,
      "sch": 6510,
      "##huset": 6511,
      "mill": 6512,
      "##ktyg": 6513,
      "vari": 6514,
      "Sa": 6515,
      "historia": 6516,
      "amerik": 6517,
      "uppe": 6518,
      "sök": 6519,
      "dist": 6520,
      "##enten": 6521,
      "##skra": 6522,
      "litet": 6523,
      "Sn": 6524,
      "process": 6525,
      "släpp": 6526,
      "##anta": 6527,
      "tillhör": 6528,
      "frukt": 6529,
      "fotboll": 6530,
      "höst": 6531,
      "förklar": 6532,
      "##cke": 6533,
      "##arbete": 6534,
      "##dejting": 6535,
      "Malmö": 6536,
      "##ash": 6537,
      "##läg": 6538,
      "universitet": 6539,
      "massor": 6540,
      "öka": 6541,
      "Sch": 6542,
      "##ligheten": 6543,
      "konkur": 6544,
      "Ju": 6545,
      "##skr": 6546,
      "##ösa": 6547,
      "lön": 6548,
      "hot": 6549,
      "##pla": 6550,
      "##ink": 6551,
      "##ikation": 6552,
      "söndag": 6553,
      "stället": 6554,
      "ris": 6555,
      "bus": 6556,
      "semester": 6557,
      "Bra": 6558,
      "sock": 6559,
      "##book": 6560,
      "chef": 6561,
      "viktiga": 6562,
      "enskil": 6563,
      "ter": 6564,
      "kvinna": 6565,
      "##ET": 6566,
      "##stans": 6567,
      "sort": 6568,
      "sten": 6569,
      "my": 6570,
      "##ärer": 6571,
      "##dering": 6572,
      "##rift": 6573,
      "viktig": 6574,
      "Lu": 6575,
      "##enden": 6576,
      "Hans": 6577,
      "##jor": 6578,
      "uppmärk": 6579,
      "trygg": 6580,
      "varmaste": 6581,
      "föräldrar": 6582,
      "huset": 6583,
      "oavsett": 6584,
      "hittade": 6585,
      "Hej": 6586,
      "kommentar": 6587,
      "intresse": 6588,
      "Reg": 6589,
      "##blad": 6590,
      "norr": 6591,
      "långa": 6592,
      "häm": 6593,
      "dåligt": 6594,
      "##use": 6595,
      "pot": 6596,
      "luft": 6597,
      "##äpp": 6598,
      "##seende": 6599,
      "hemsida": 6600,
      "Co": 6601,
      "medlemmar": 6602,
      "kompl": 6603,
      "La": 6604,
      "##ald": 6605,
      "ont": 6606,
      "språk": 6607,
      "##företag": 6608,
      "Hopp": 6609,
      "Intern": 6610,
      "##eställ": 6611,
      "tanke": 6612,
      "##ifier": 6613,
      "##rot": 6614,
      "kallaste": 6615,
      "##ige": 6616,
      "##orl": 6617,
      "##ffa": 6618,
      "meddel": 6619,
      "jäv": 6620,
      "##skriv": 6621,
      "Igår": 6622,
      "##ww": 6623,
      "Su": 6624,
      "stopp": 6625,
      "##olf": 6626,
      "Erik": 6627,
      "kostnader": 6628,
      "##kes": 6629,
      "offent": 6630,
      "##sg": 6631,
      "visst": 6632,
      "##ulla": 6633,
      "medeltemperaturen": 6634,
      "utl": 6635,
      "löp": 6636,
      "staden": 6637,
      "Del": 6638,
      "såsom": 6639,
      "utred": 6640,
      "fas": 6641,
      "recept": 6642,
      "Årsmedel": 6643,
      "hit": 6644,
      "leva": 6645,
      "Ver": 6646,
      "##bro": 6647,
      "Årsmedeltemperaturen": 6648,
      "besö": 6649,
      "##una": 6650,
      "båt": 6651,
      "##samt": 6652,
      "##bur": 6653,
      "##rip": 6654,
      "Nej": 6655,
      "##tes": 6656,
      "rom": 6657,
      "Jon": 6658,
      "vänster": 6659,
      "områden": 6660,
      "##ycken": 6661,
      "##växt": 6662,
      "nor": 6663,
      "byg": 6664,
      "föres": 6665,
      "kräver": 6666,
      "sur": 6667,
      "inb": 6668,
      "väntar": 6669,
      "drog": 6670,
      "omgiv": 6671,
      "sådant": 6672,
      "##teck": 6673,
      "kamp": 6674,
      "##rummet": 6675,
      "##jänst": 6676,
      "##nytt": 6677,
      "bloggen": 6678,
      "avgör": 6679,
      "ek": 6680,
      "lärare": 6681,
      "##på": 6682,
      "##åde": 6683,
      "engag": 6684,
      "född": 6685,
      "himla": 6686,
      "utveckla": 6687,
      "begräns": 6688,
      "##pan": 6689,
      "tävling": 6690,
      "##utomat": 6691,
      "tradition": 6692,
      "##ila": 6693,
      "Europa": 6694,
      "vinter": 6695,
      "##iljö": 6696,
      "klimat": 6697,
      "höga": 6698,
      "Go": 6699,
      "kval": 6700,
      "##qu": 6701,
      "utifrån": 6702,
      "##atser": 6703,
      "kallas": 6704,
      "num": 6705,
      "samarbete": 6706,
      "vare": 6707,
      "##person": 6708,
      "framgång": 6709,
      "trodde": 6710,
      "##edd": 6711,
      "äntligen": 6712,
      "##erades": 6713,
      "ansök": 6714,
      "möjligheter": 6715,
      "såväl": 6716,
      "##till": 6717,
      "##mål": 6718,
      "påverka": 6719,
      "millimeter": 6720,
      "berätta": 6721,
      "hum": 6722,
      "stand": 6723,
      "bju": 6724,
      "skapar": 6725,
      "Kn": 6726,
      "##entet": 6727,
      "Er": 6728,
      "##ola": 6729,
      "Lund": 6730,
      "##list": 6731,
      "rädd": 6732,
      "spår": 6733,
      "##rala": 6734,
      "dator": 6735,
      "krig": 6736,
      "platt": 6737,
      "##limat": 6738,
      "nej": 6739,
      "interv": 6740,
      "Öster": 6741,
      "##skola": 6742,
      "##kilometer": 6743,
      "Ind": 6744,
      "Norr": 6745,
      "högt": 6746,
      "##trem": 6747,
      "##väst": 6748,
      "lek": 6749,
      "fart": 6750,
      "##delning": 6751,
      "##ST": 6752,
      "våld": 6753,
      "chans": 6754,
      "kompet": 6755,
      "##grupp": 6756,
      "port": 6757,
      "kvadratkilometer": 6758,
      "allra": 6759,
      "##ica": 6760,
      "Genomsnitt": 6761,
      "##aler": 6762,
      "företaget": 6763,
      "höger": 6764,
      "##lever": 6765,
      "##cebook": 6766,
      "mej": 6767,
      "icke": 6768,
      "##dels": 6769,
      "video": 6770,
      "##ias": 6771,
      "skön": 6772,
      "totalt": 6773,
      "##medel": 6774,
      "##pon": 6775,
      "ställa": 6776,
      "beror": 6777,
      "skillnad": 6778,
      "www": 6779,
      "Barn": 6780,
      "diskuter": 6781,
      "##cc": 6782,
      "mär": 6783,
      "scen": 6784,
      "grå": 6785,
      "##sidor": 6786,
      "at": 6787,
      "skrivit": 6788,
      "##änder": 6789,
      "ansikt": 6790,
      "##ions": 6791,
      "##bildning": 6792,
      "Varför": 6793,
      "grön": 6794,
      "Ingen": 6795,
      "promenad": 6796,
      "läser": 6797,
      "fö": 6798,
      "##veckling": 6799,
      "öv": 6800,
      "sta": 6801,
      "försälj": 6802,
      "##ly": 6803,
      "Hem": 6804,
      "##ektive": 6805,
      "##ständ": 6806,
      "##still": 6807,
      "##verksamhet": 6808,
      "##iod": 6809,
      "max": 6810,
      "##press": 6811,
      "anser": 6812,
      "växer": 6813,
      "kändes": 6814,
      "##ih": 6815,
      "profess": 6816,
      "##ottag": 6817,
      "utmärkt": 6818,
      "leder": 6819,
      "sociala": 6820,
      "skola": 6821,
      "kostnad": 6822,
      "matt": 6823,
      "od": 6824,
      "Genomsnittlig": 6825,
      "individ": 6826,
      "skick": 6827,
      "teknik": 6828,
      "th": 6829,
      "##allen": 6830,
      "årets": 6831,
      "respektive": 6832,
      "anledning": 6833,
      "##ander": 6834,
      "##skon": 6835,
      "gläd": 6836,
      "sport": 6837,
      "lördag": 6838,
      "tas": 6839,
      "##följ": 6840,
      "Kommun": 6841,
      "##emål": 6842,
      "ne": 6843,
      "kri": 6844,
      "Te": 6845,
      "dokument": 6846,
      "##oppet": 6847,
      "torraste": 6848,
      "##pris": 6849,
      "##rör": 6850,
      "träna": 6851,
      "lättare": 6852,
      "cykel": 6853,
      "##punkt": 6854,
      "Im": 6855,
      "##lande": 6856,
      "regnigaste": 6857,
      "känsla": 6858,
      "##likt": 6859,
      "##sd": 6860,
      "erbjuda": 6861,
      "årsned": 6862,
      "##arakt": 6863,
      "tåg": 6864,
      "årsnederbörd": 6865,
      "engelska": 6866,
      "Förs": 6867,
      "Kar": 6868,
      "Anna": 6869,
      "##orden": 6870,
      "oper": 6871,
      "##ungen": 6872,
      "server": 6873,
      "exakt": 6874,
      "##ferens": 6875,
      "##garna": 6876,
      "Gör": 6877,
      "##ärn": 6878,
      "väder": 6879,
      "försäkring": 6880,
      "ikväll": 6881,
      "katt": 6882,
      "He": 6883,
      "vardag": 6884,
      "##ningsvis": 6885,
      "Krist": 6886,
      "förstås": 6887,
      "mera": 6888,
      "Sy": 6889,
      "Person": 6890,
      "##out": 6891,
      "ident": 6892,
      "princi": 6893,
      "tråk": 6894,
      "##bes": 6895,
      "osv": 6896,
      "drabb": 6897,
      "vers": 6898,
      "hälsa": 6899,
      "helg": 6900,
      "förel": 6901,
      "vann": 6902,
      "insta": 6903,
      "ekonomiska": 6904,
      "##emi": 6905,
      "##läggning": 6906,
      "design": 6907,
      "##sala": 6908,
      "Tid": 6909,
      "enbart": 6910,
      "##igen": 6911,
      "##ktioner": 6912,
      "is": 6913,
      "undersök": 6914,
      "Bland": 6915,
      "##järn": 6916,
      "poj": 6917,
      "röd": 6918,
      "stress": 6919,
      "##over": 6920,
      "Må": 6921,
      "##ump": 6922,
      "villkor": 6923,
      "Mot": 6924,
      "smak": 6925,
      "lyckas": 6926,
      "sätter": 6927,
      "kök": 6928,
      "antalet": 6929,
      "ökar": 6930,
      "skit": 6931,
      "fastighet": 6932,
      "##iat": 6933,
      "rapporter": 6934,
      "röst": 6935,
      "kontroll": 6936,
      "utgör": 6937,
      "förvänt": 6938,
      "##vara": 6939,
      "sek": 6940,
      "bank": 6941,
      "spelade": 6942,
      "##ipp": 6943,
      "övrigt": 6944,
      "repres": 6945,
      "underhåll": 6946,
      "New": 6947,
      "sats": 6948,
      "natten": 6949,
      "uppskatt": 6950,
      "bonus": 6951,
      "ang": 6952,
      "borta": 6953,
      "drag": 6954,
      "##vist": 6955,
      "Car": 6956,
      "Hoppas": 6957,
      "färger": 6958,
      "avsnitt": 6959,
      "##tryck": 6960,
      "kontroller": 6961,
      "lägg": 6962,
      "ide": 6963,
      "##ningss": 6964,
      "##talet": 6965,
      "Sl": 6966,
      "##igg": 6967,
      "bord": 6968,
      "##ibli": 6969,
      "##marna": 6970,
      "redovis": 6971,
      "For": 6972,
      "möte": 6973,
      "##skor": 6974,
      "framtiden": 6975,
      "sann": 6976,
      "kunnat": 6977,
      "ry": 6978,
      "sälj": 6979,
      "##ordon": 6980,
      "sist": 6981,
      "Ben": 6982,
      "##entligt": 6983,
      "lämp": 6984,
      "medvet": 6985,
      "infl": 6986,
      "##let": 6987,
      "##bundet": 6988,
      "##ödra": 6989,
      "##ations": 6990,
      "läst": 6991,
      "##ktor": 6992,
      "##mo": 6993,
      "Fot": 6994,
      "fotograf": 6995,
      "os": 6996,
      "kött": 6997,
      "Trots": 6998,
      "##sprung": 6999,
      "##eskriv": 7000,
      "##skapet": 7001,
      "anpass": 7002,
      "vänta": 7003,
      "##stra": 7004,
      "trevligt": 7005,
      "##itar": 7006,
      "ev": 7007,
      "##åå": 7008,
      "typer": 7009,
      "äter": 7010,
      "##iddagen": 7011,
      "kaffe": 7012,
      "sjun": 7013,
      "nätdejting": 7014,
      "##äls": 7015,
      "##larna": 7016,
      "euro": 7017,
      "guld": 7018,
      "ko": 7019,
      "råder": 7020,
      "ras": 7021,
      "lägre": 7022,
      "därefter": 7023,
      "##endet": 7024,
      "solen": 7025,
      "Mycket": 7026,
      "trafik": 7027,
      "##iti": 7028,
      "##delen": 7029,
      "rut": 7030,
      "byta": 7031,
      "Över": 7032,
      "Str": 7033,
      "Bar": 7034,
      "någonsin": 7035,
      "bekv": 7036,
      "hårt": 7037,
      "varmt": 7038,
      "dagarna": 7039,
      "##demokrat": 7040,
      "forskning": 7041,
      "htt": 7042,
      "produc": 7043,
      "dela": 7044,
      "##agg": 7045,
      "iaf": 7046,
      "elekt": 7047,
      "avs": 7048,
      "tillräckligt": 7049,
      "snö": 7050,
      "söka": 7051,
      "produktion": 7052,
      "samtliga": 7053,
      "##hem": 7054,
      "älska": 7055,
      "dejta": 7056,
      "##ären": 7057,
      "tus": 7058,
      "hud": 7059,
      "##ee": 7060,
      "förutom": 7061,
      "##ric": 7062,
      "spelet": 7063,
      "##urs": 7064,
      "verksamheten": 7065,
      "##ologi": 7066,
      "##licka": 7067,
      "##inder": 7068,
      "##oms": 7069,
      "tors": 7070,
      "Hög": 7071,
      "användning": 7072,
      "eta": 7073,
      "##ckar": 7074,
      "timme": 7075,
      "Varje": 7076,
      "ass": 7077,
      "##her": 7078,
      "drar": 7079,
      "reda": 7080,
      "Johan": 7081,
      "önskar": 7082,
      "jätte": 7083,
      "dusch": 7084,
      "##hl": 7085,
      "sing": 7086,
      "am": 7087,
      "##stol": 7088,
      "berg": 7089,
      "##änga": 7090,
      "##cep": 7091,
      "sjukt": 7092,
      "ersätt": 7093,
      "boka": 7094,
      "resten": 7095,
      "##slan": 7096,
      "hård": 7097,
      "inled": 7098,
      "trevlig": 7099,
      "tankar": 7100,
      "##ående": 7101,
      "##za": 7102,
      "##rika": 7103,
      "väst": 7104,
      "##bef": 7105,
      "exper": 7106,
      "strateg": 7107,
      "Di": 7108,
      "självklart": 7109,
      "##värt": 7110,
      "samhället": 7111,
      "gro": 7112,
      "område": 7113,
      "indu": 7114,
      "orsa": 7115,
      "förber": 7116,
      "såklart": 7117,
      "##inge": 7118,
      "säng": 7119,
      "##tingen": 7120,
      "Mon": 7121,
      "##OR": 7122,
      "måndag": 7123,
      "vitt": 7124,
      "knappt": 7125,
      "lagen": 7126,
      "##oklad": 7127,
      "förekom": 7128,
      "##orlunda": 7129,
      "Tänk": 7130,
      "##back": 7131,
      "makt": 7132,
      "bidrag": 7133,
      "fantastisk": 7134,
      "present": 7135,
      "leg": 7136,
      "##anda": 7137,
      "special": 7138,
      "leverant": 7139,
      "gällande": 7140,
      "fj": 7141,
      "grader": 7142,
      "##AT": 7143,
      "##stri": 7144,
      "saknar": 7145,
      "##stitut": 7146,
      "fantastiskt": 7147,
      "##jan": 7148,
      "dels": 7149,
      "soff": 7150,
      "##spektiv": 7151,
      "plöts": 7152,
      "nåt": 7153,
      "marknaden": 7154,
      "plocka": 7155,
      "beräk": 7156,
      "boende": 7157,
      "säsongen": 7158,
      "##ham": 7159,
      "##iteten": 7160,
      "mjöl": 7161,
      "##ula": 7162,
      "ligga": 7163,
      "roliga": 7164,
      "vinna": 7165,
      "##itid": 7166,
      "##lic": 7167,
      "##samling": 7168,
      "sängen": 7169,
      "kilometer": 7170,
      "##ve": 7171,
      "##aget": 7172,
      "##givare": 7173,
      "mesta": 7174,
      "extrem": 7175,
      "lokala": 7176,
      "njuta": 7177,
      "##ägare": 7178,
      "Gratis": 7179,
      "Väster": 7180,
      "avsl": 7181,
      "Bara": 7182,
      "##visning": 7183,
      "##gren": 7184,
      "hösten": 7185,
      "växt": 7186,
      "ses": 7187,
      "sluta": 7188,
      "##aten": 7189,
      "rent": 7190,
      "parker": 7191,
      "senast": 7192,
      "##dress": 7193,
      "namnet": 7194,
      "Soci": 7195,
      "##lare": 7196,
      "kontakta": 7197,
      "##orge": 7198,
      "förbi": 7199,
      "Stockholms": 7200,
      "##ryck": 7201,
      "söder": 7202,
      "uppfatt": 7203,
      "##änning": 7204,
      "vattnet": 7205,
      "gemensam": 7206,
      "##istiska": 7207,
      "utnytt": 7208,
      "polis": 7209,
      "Porr": 7210,
      "##uck": 7211,
      "##ekv": 7212,
      "fran": 7213,
      "Lite": 7214,
      "dam": 7215,
      "Ge": 7216,
      "##emedel": 7217,
      "##sled": 7218,
      "vanlig": 7219,
      "grän": 7220,
      "dating": 7221,
      "filmer": 7222,
      "ingenting": 7223,
      "##fa": 7224,
      "##uden": 7225,
      "dukt": 7226,
      "##klag": 7227,
      "Dom": 7228,
      "huvudet": 7229,
      "mängd": 7230,
      "ihåg": 7231,
      "räd": 7232,
      "kommande": 7233,
      "bakgrund": 7234,
      "tjänst": 7235,
      "Hade": 7236,
      "framåt": 7237,
      "handla": 7238,
      "##eringar": 7239,
      "Gl": 7240,
      "##vika": 7241,
      "Köp": 7242,
      "förvalt": 7243,
      "testa": 7244,
      "priser": 7245,
      "Söder": 7246,
      "samtal": 7247,
      "bygger": 7248,
      "##äget": 7249,
      "enkla": 7250,
      "##klass": 7251,
      "storlek": 7252,
      "neg": 7253,
      "förlor": 7254,
      "##ING": 7255,
      "rab": 7256,
      "Sc": 7257,
      "centrala": 7258,
      "Lind": 7259,
      "sim": 7260,
      "Uppsala": 7261,
      "Ibland": 7262,
      "ordförande": 7263,
      "anslut": 7264,
      "Björ": 7265,
      "##but": 7266,
      "##ills": 7267,
      "##ele": 7268,
      "mår": 7269,
      "##äx": 7270,
      "Her": 7271,
      "reser": 7272,
      "lägenhet": 7273,
      "samhälle": 7274,
      "någonting": 7275,
      "Berg": 7276,
      "betydligt": 7277,
      "Ann": 7278,
      "##ura": 7279,
      "handel": 7280,
      "slå": 7281,
      "sidor": 7282,
      "press": 7283,
      "sän": 7284,
      "##yra": 7285,
      "ark": 7286,
      "serien": 7287,
      "dryg": 7288,
      "##ullar": 7289,
      "##scort": 7290,
      "##stag": 7291,
      "medarbet": 7292,
      "Carl": 7293,
      "sla": 7294,
      "däremot": 7295,
      "motor": 7296,
      "Ph": 7297,
      "plus": 7298,
      "närmare": 7299,
      "SM": 7300,
      "##hav": 7301,
      "##ställa": 7302,
      "tryck": 7303,
      "##ätta": 7304,
      "gymnas": 7305,
      "##uts": 7306,
      "##orten": 7307,
      "riks": 7308,
      "ursprung": 7309,
      "satte": 7310,
      "##ds": 7311,
      "Mitt": 7312,
      "##ate": 7313,
      "tving": 7314,
      "flick": 7315,
      "efterm": 7316,
      "back": 7317,
      "##klam": 7318,
      "Fred": 7319,
      "##yta": 7320,
      "##klare": 7321,
      "åtgärder": 7322,
      "aktiviteter": 7323,
      "regler": 7324,
      "öppen": 7325,
      "##igur": 7326,
      "flytta": 7327,
      "Spel": 7328,
      "ons": 7329,
      "band": 7330,
      "##iot": 7331,
      "##ogg": 7332,
      "kategor": 7333,
      "seg": 7334,
      "##lack": 7335,
      "Am": 7336,
      "karakt": 7337,
      "sånt": 7338,
      "##edagog": 7339,
      "##anger": 7340,
      "Dock": 7341,
      "yng": 7342,
      "san": 7343,
      "son": 7344,
      "automat": 7345,
      "spen": 7346,
      "fantastiska": 7347,
      "risker": 7348,
      "verktyg": 7349,
      "##terar": 7350,
      "finansiella": 7351,
      "##ioden": 7352,
      "tydligt": 7353,
      "##stone": 7354,
      "väster": 7355,
      "medicin": 7356,
      "ät": 7357,
      "viktigaste": 7358,
      "butik": 7359,
      "Tur": 7360,
      "specif": 7361,
      "Väst": 7362,
      "##kning": 7363,
      "##lor": 7364,
      "ret": 7365,
      "Jan": 7366,
      "lekt": 7367,
      "##ette": 7368,
      "hämt": 7369,
      "Kr": 7370,
      "utrust": 7371,
      "säm": 7372,
      "fixa": 7373,
      "##porter": 7374,
      "etc": 7375,
      "paket": 7376,
      "modern": 7377,
      "valt": 7378,
      "Eng": 7379,
      "##ood": 7380,
      "tillstånd": 7381,
      "let": 7382,
      "plötsligt": 7383,
      "##ager": 7384,
      "##iera": 7385,
      "opt": 7386,
      "mäng": 7387,
      "känd": 7388,
      "pension": 7389,
      "##aken": 7390,
      "Först": 7391,
      "vore": 7392,
      "Bet": 7393,
      "##film": 7394,
      "period": 7395,
      "lyck": 7396,
      "On": 7397,
      "försvar": 7398,
      "lyckades": 7399,
      "region": 7400,
      "kompetens": 7401,
      "värme": 7402,
      "tit": 7403,
      "##äckt": 7404,
      "Bes": 7405,
      "Ed": 7406,
      "brev": 7407,
      "##dret": 7408,
      "vägg": 7409,
      "##kast": 7410,
      "givet": 7411,
      "##cens": 7412,
      "##inal": 7413,
      "öns": 7414,
      "datorn": 7415,
      "##uten": 7416,
      "dålig": 7417,
      "##ansson": 7418,
      "##gången": 7419,
      "##usive": 7420,
      "ak": 7421,
      "##ingens": 7422,
      "##nda": 7423,
      "matchen": 7424,
      "lyssna": 7425,
      "sjö": 7426,
      "shopp": 7427,
      "Anders": 7428,
      "städ": 7429,
      "##gn": 7430,
      "bransch": 7431,
      "vuxna": 7432,
      "##stav": 7433,
      "visste": 7434,
      "##ordning": 7435,
      "göras": 7436,
      "tänk": 7437,
      "sil": 7438,
      "##jul": 7439,
      "triv": 7440,
      "##ros": 7441,
      "##ötter": 7442,
      "rym": 7443,
      "##ringar": 7444,
      "##skl": 7445,
      "integr": 7446,
      "inred": 7447,
      "organisation": 7448,
      "##system": 7449,
      "övert": 7450,
      "##tet": 7451,
      "##tidigt": 7452,
      "finansier": 7453,
      "##delar": 7454,
      "##unkter": 7455,
      "Låt": 7456,
      "prova": 7457,
      "##ården": 7458,
      "##gick": 7459,
      "##ligheter": 7460,
      "mun": 7461,
      "körde": 7462,
      "##umenter": 7463,
      "artikel": 7464,
      "häng": 7465,
      "ställer": 7466,
      "framt": 7467,
      "nummer": 7468,
      "##ftet": 7469,
      "##iens": 7470,
      "skr": 7471,
      "##ändska": 7472,
      "##IS": 7473,
      "regl": 7474,
      "##ight": 7475,
      "kart": 7476,
      "låna": 7477,
      "SE": 7478,
      "skratt": 7479,
      "starkt": 7480,
      "Pol": 7481,
      "##ild": 7482,
      "anställda": 7483,
      "pratar": 7484,
      "##ial": 7485,
      "strax": 7486,
      "##ckade": 7487,
      "Jes": 7488,
      "##cy": 7489,
      "##ox": 7490,
      "##chef": 7491,
      "##fören": 7492,
      "ent": 7493,
      "Finland": 7494,
      "##kten": 7495,
      "morgonen": 7496,
      "laget": 7497,
      "##ress": 7498,
      "##allafall": 7499,
      "Hall": 7500,
      "varier": 7501,
      "Samtidigt": 7502,
      "skäl": 7503,
      "##odligen": 7504,
      "vind": 7505,
      "föränd": 7506,
      "passa": 7507,
      "görs": 7508,
      "Kän": 7509,
      "##slös": 7510,
      "choklad": 7511,
      "idrott": 7512,
      "tum": 7513,
      "##urser": 7514,
      "bro": 7515,
      "##ON": 7516,
      "snar": 7517,
      "nöj": 7518,
      "##ube": 7519,
      "intervju": 7520,
      "sal": 7521,
      "lagt": 7522,
      "Gre": 7523,
      "försök": 7524,
      "yrkes": 7525,
      "##skning": 7526,
      "ändra": 7527,
      "sid": 7528,
      "hämta": 7529,
      "tand": 7530,
      "##året": 7531,
      "standard": 7532,
      "Mal": 7533,
      "tis": 7534,
      "etabl": 7535,
      "undrar": 7536,
      "##börj": 7537,
      "##add": 7538,
      "ram": 7539,
      "Två": 7540,
      "antingen": 7541,
      "Vet": 7542,
      "regeringen": 7543,
      "##kopp": 7544,
      "##minstone": 7545,
      "kurs": 7546,
      "gran": 7547,
      "dvs": 7548,
      "kostar": 7549,
      "riktig": 7550,
      "förutsättningar": 7551,
      "vars": 7552,
      "sål": 7553,
      "##program": 7554,
      "fönster": 7555,
      "Bok": 7556,
      "Pla": 7557,
      "klipp": 7558,
      "mail": 7559,
      "##slagen": 7560,
      "Mart": 7561,
      "##spekt": 7562,
      "välkom": 7563,
      "##emat": 7564,
      "vita": 7565,
      "valde": 7566,
      "##wa": 7567,
      "##ev": 7568,
      "##istik": 7569,
      "analys": 7570,
      "IN": 7571,
      "Kal": 7572,
      "diskuss": 7573,
      "ända": 7574,
      "kast": 7575,
      "##vägen": 7576,
      "##ologiska": 7577,
      "käll": 7578,
      "hänt": 7579,
      "##brott": 7580,
      "våren": 7581,
      "kontor": 7582,
      "jämfört": 7583,
      "rejäl": 7584,
      "Sol": 7585,
      "Gam": 7586,
      "människa": 7587,
      "##fritt": 7588,
      "amb": 7589,
      "##ca": 7590,
      "annorlunda": 7591,
      "ordning": 7592,
      "läge": 7593,
      "skor": 7594,
      "fe": 7595,
      "##bum": 7596,
      "##pat": 7597,
      "lager": 7598,
      "##srätt": 7599,
      "##ämm": 7600,
      "köpt": 7601,
      "centrum": 7602,
      "##kohol": 7603,
      "##lir": 7604,
      "##elat": 7605,
      "slutade": 7606,
      "data": 7607,
      "konstat": 7608,
      "##rim": 7609,
      "Använd": 7610,
      "##ii": 7611,
      "bilar": 7612,
      "rid": 7613,
      "härlig": 7614,
      "rygg": 7615,
      "##satta": 7616,
      "##fton": 7617,
      "öppet": 7618,
      "uppgift": 7619,
      "accep": 7620,
      "Rik": 7621,
      "Frank": 7622,
      "##elt": 7623,
      "##åda": 7624,
      "antag": 7625,
      "ges": 7626,
      "lämnar": 7627,
      "utbud": 7628,
      "##rav": 7629,
      "##aj": 7630,
      "slog": 7631,
      "##assage": 7632,
      "nyhet": 7633,
      "tittar": 7634,
      "leda": 7635,
      "papp": 7636,
      "blomm": 7637,
      "##tliga": 7638,
      "ång": 7639,
      "##fors": 7640,
      "höj": 7641,
      "dyg": 7642,
      "dyr": 7643,
      "tillämp": 7644,
      "##ställd": 7645,
      "jävla": 7646,
      "lugnt": 7647,
      "##sorg": 7648,
      "vir": 7649,
      "terr": 7650,
      "definit": 7651,
      "##mt": 7652,
      "##amin": 7653,
      "Kat": 7654,
      "Tje": 7655,
      "##TE": 7656,
      "Nor": 7657,
      "Skulle": 7658,
      "Nil": 7659,
      "köper": 7660,
      "Peter": 7661,
      "drygt": 7662,
      "##rande": 7663,
      "sjön": 7664,
      "ansökan": 7665,
      "förhållande": 7666,
      "naturligtvis": 7667,
      "ordentligt": 7668,
      "##ydda": 7669,
      "öster": 7670,
      "Trakten": 7671,
      "underbara": 7672,
      "förvär": 7673,
      "ställe": 7674,
      "dest": 7675,
      "utvecklas": 7676,
      "tak": 7677,
      "##här": 7678,
      "mång": 7679,
      "arg": 7680,
      "kommunikation": 7681,
      "##ingarna": 7682,
      "##anten": 7683,
      "säg": 7684,
      "boll": 7685,
      "papper": 7686,
      "trädgård": 7687,
      "skiv": 7688,
      "önsk": 7689,
      "kapital": 7690,
      "Tor": 7691,
      "##kläder": 7692,
      "sannol": 7693,
      "##eden": 7694,
      "massage": 7695,
      "Val": 7696,
      "##hang": 7697,
      "mod": 7698,
      "soffan": 7699,
      "##län": 7700,
      "utrym": 7701,
      "lju": 7702,
      "hittat": 7703,
      "priset": 7704,
      "betydelse": 7705,
      "värt": 7706,
      "härligt": 7707,
      "mitten": 7708,
      "iallafall": 7709,
      "politiska": 7710,
      "ytt": 7711,
      "nyck": 7712,
      "##umm": 7713,
      "åtta": 7714,
      "prote": 7715,
      "söm": 7716,
      "princip": 7717,
      "Hels": 7718,
      "Ham": 7719,
      "ir": 7720,
      "jour": 7721,
      "gäng": 7722,
      "blom": 7723,
      "Fram": 7724,
      "påverkar": 7725,
      "konto": 7726,
      "##rike": 7727,
      "Art": 7728,
      "##ith": 7729,
      "##nov": 7730,
      "uppn": 7731,
      "##aller": 7732,
      "##färd": 7733,
      "ekonomi": 7734,
      "mä": 7735,
      "hantera": 7736,
      "fol": 7737,
      "Maria": 7738,
      "orkar": 7739,
      "##skomm": 7740,
      "numera": 7741,
      "provin": 7742,
      "Äl": 7743,
      "bev": 7744,
      "##ada": 7745,
      "##uren": 7746,
      "relig": 7747,
      "klarar": 7748,
      "Ul": 7749,
      "godkän": 7750,
      "smör": 7751,
      "visas": 7752,
      "Gru": 7753,
      "Land": 7754,
      "projektet": 7755,
      "Tysk": 7756,
      "##ustr": 7757,
      "strä": 7758,
      "fika": 7759,
      "Några": 7760,
      "##kommer": 7761,
      "marknadsför": 7762,
      "##off": 7763,
      "konser": 7764,
      "##skog": 7765,
      "Con": 7766,
      "##IG": 7767,
      "pan": 7768,
      "adress": 7769,
      "##odde": 7770,
      "vacker": 7771,
      "fritid": 7772,
      "talar": 7773,
      "intresserad": 7774,
      "kre": 7775,
      "Christ": 7776,
      "##ona": 7777,
      "gal": 7778,
      "lo": 7779,
      "##onom": 7780,
      "avl": 7781,
      "##rang": 7782,
      "Pre": 7783,
      "dis": 7784,
      "detaljer": 7785,
      "Tre": 7786,
      "profil": 7787,
      "##skort": 7788,
      "##ingsl": 7789,
      "underbart": 7790,
      "rabatt": 7791,
      "vol": 7792,
      "mjuk": 7793,
      "##ugga": 7794,
      "Hus": 7795,
      "bevis": 7796,
      "föresl": 7797,
      "läkare": 7798,
      "vinst": 7799,
      "konstigt": 7800,
      "jur": 7801,
      "sällan": 7802,
      "##ilt": 7803,
      "värd": 7804,
      "normalt": 7805,
      "godk": 7806,
      "##ienter": 7807,
      "förbättra": 7808,
      "ungdomar": 7809,
      "musk": 7810,
      "högst": 7811,
      "##por": 7812,
      "##omb": 7813,
      "##jöd": 7814,
      "##arens": 7815,
      "förhopp": 7816,
      "kg": 7817,
      "##valt": 7818,
      "syfte": 7819,
      "bröst": 7820,
      "Ans": 7821,
      "fåg": 7822,
      "sälja": 7823,
      "sträck": 7824,
      "kvart": 7825,
      "##derat": 7826,
      "konkurr": 7827,
      "kallade": 7828,
      "Matt": 7829,
      "##vakt": 7830,
      "föred": 7831,
      "programmet": 7832,
      "grym": 7833,
      "Helsing": 7834,
      "balans": 7835,
      "##slaget": 7836,
      "kille": 7837,
      "##oden": 7838,
      "springa": 7839,
      "sikt": 7840,
      "##gruppen": 7841,
      "ägg": 7842,
      "studie": 7843,
      "##sö": 7844,
      "anses": 7845,
      "hyp": 7846,
      "Skån": 7847,
      "nyf": 7848,
      "delta": 7849,
      "längs": 7850,
      "##we": 7851,
      "##ader": 7852,
      "stanna": 7853,
      "##zz": 7854,
      "undvika": 7855,
      "säsong": 7856,
      "bestämt": 7857,
      "förmåga": 7858,
      "maten": 7859,
      "##isa": 7860,
      "sent": 7861,
      "##sma": 7862,
      "mänsk": 7863,
      "reklam": 7864,
      "##aden": 7865,
      "tuff": 7866,
      "##styrelsen": 7867,
      "Finns": 7868,
      "bem": 7869,
      "räcker": 7870,
      "##iment": 7871,
      "##pren": 7872,
      "ill": 7873,
      "Tyvärr": 7874,
      "konf": 7875,
      "Får": 7876,
      "##gj": 7877,
      "##kam": 7878,
      "##stift": 7879,
      "hyres": 7880,
      "garanter": 7881,
      "åsikt": 7882,
      "politik": 7883,
      "tät": 7884,
      "betyg": 7885,
      "Facebook": 7886,
      "##lund": 7887,
      "datum": 7888,
      "starka": 7889,
      "fordon": 7890,
      "##antag": 7891,
      "nuvarande": 7892,
      "##önstr": 7893,
      "##äft": 7894,
      "Social": 7895,
      "sjukv": 7896,
      "lösningar": 7897,
      "funn": 7898,
      "sväng": 7899,
      "läkemedel": 7900,
      "plast": 7901,
      "nr": 7902,
      "##lik": 7903,
      "utform": 7904,
      "resultatet": 7905,
      "mottag": 7906,
      "kalla": 7907,
      "central": 7908,
      "alkohol": 7909,
      "Visst": 7910,
      "stabil": 7911,
      "##ius": 7912,
      "Hand": 7913,
      "##mel": 7914,
      "inform": 7915,
      "##bas": 7916,
      "##sområde": 7917,
      "##skär": 7918,
      "bilderna": 7919,
      "Mål": 7920,
      "##ivare": 7921,
      "försökte": 7922,
      "##meå": 7923,
      "##ställningar": 7924,
      "Förutom": 7925,
      "##platsen": 7926,
      "##sting": 7927,
      "hållbar": 7928,
      "lösa": 7929,
      "##andring": 7930,
      "berör": 7931,
      "förmodligen": 7932,
      "##inar": 7933,
      "##shus": 7934,
      "hört": 7935,
      "söt": 7936,
      "##rebro": 7937,
      "Våra": 7938,
      "åtminstone": 7939,
      "studier": 7940,
      "okej": 7941,
      "##klara": 7942,
      "situation": 7943,
      "skogen": 7944,
      "skul": 7945,
      "fyller": 7946,
      "konstn": 7947,
      "kända": 7948,
      "Din": 7949,
      "frisk": 7950,
      "##IK": 7951,
      "restaurang": 7952,
      "brand": 7953,
      "magen": 7954,
      "modell": 7955,
      "http": 7956,
      "syster": 7957,
      "ökad": 7958,
      "djup": 7959,
      "fett": 7960,
      "##ista": 7961,
      "Internet": 7962,
      "pengarna": 7963,
      "##ansvar": 7964,
      "buss": 7965,
      "kompis": 7966,
      "Än": 7967,
      "jakt": 7968,
      "budget": 7969,
      "serie": 7970,
      "##fan": 7971,
      "##sart": 7972,
      "##tion": 7973,
      "mån": 7974,
      "Svensk": 7975,
      "Hol": 7976,
      "upprätt": 7977,
      "sat": 7978,
      "internationella": 7979,
      "vänt": 7980,
      "inklusive": 7981,
      "siff": 7982,
      "skyld": 7983,
      "lock": 7984,
      "gett": 7985,
      "ku": 7986,
      "Vissa": 7987,
      "dejtingsajt": 7988,
      "järn": 7989,
      "punkten": 7990,
      "##uc": 7991,
      "##deras": 7992,
      "##delser": 7993,
      "##issa": 7994,
      "##klubb": 7995,
      "tydligen": 7996,
      "bekväm": 7997,
      "gud": 7998,
      "Sund": 7999,
      "Andra": 8000,
      "klicka": 8001,
      "relativt": 8002,
      "fungera": 8003,
      "gruppen": 8004,
      "Haha": 8005,
      "lust": 8006,
      "rummet": 8007,
      "porn": 8008,
      "admin": 8009,
      "##hel": 8010,
      "##ÖR": 8011,
      "stycken": 8012,
      "teor": 8013,
      "sub": 8014,
      "syns": 8015,
      "##ämnden": 8016,
      "ämnen": 8017,
      "Företag": 8018,
      "##ledningen": 8019,
      "synd": 8020,
      "Första": 8021,
      "Kontakt": 8022,
      "möjligheten": 8023,
      "funkar": 8024,
      "sade": 8025,
      "pati": 8026,
      "snygga": 8027,
      "SV": 8028,
      "##ED": 8029,
      "##nt": 8030,
      "arm": 8031,
      "it": 8032,
      "##CH": 8033,
      "stockholm": 8034,
      "höjd": 8035,
      "bestämm": 8036,
      "##sats": 8037,
      "sorter": 8038,
      "##ssystem": 8039,
      "glob": 8040,
      "personlig": 8041,
      "Runt": 8042,
      "ru": 8043,
      "##ec": 8044,
      "##riär": 8045,
      "##SS": 8046,
      "Kvinn": 8047,
      "maskin": 8048,
      "tung": 8049,
      "demokrat": 8050,
      "Fick": 8051,
      "##oga": 8052,
      "illa": 8053,
      "ager": 8054,
      "uppen": 8055,
      "##ysning": 8056,
      "stäng": 8057,
      "##leken": 8058,
      "undan": 8059,
      "slags": 8060,
      "hyll": 8061,
      "Mark": 8062,
      "##sprogram": 8063,
      "##ise": 8064,
      "Natur": 8065,
      "provinsen": 8066,
      "##omas": 8067,
      "##sterna": 8068,
      "Folk": 8069,
      "behövde": 8070,
      "tyst": 8071,
      "starta": 8072,
      "Kommer": 8073,
      "##ots": 8074,
      "underbar": 8075,
      "hål": 8076,
      "##troende": 8077,
      "minns": 8078,
      "hunnit": 8079,
      "Kung": 8080,
      "##nummer": 8081,
      "tala": 8082,
      "ot": 8083,
      "inklu": 8084,
      "##skv": 8085,
      "möjliga": 8086,
      "jobbigt": 8087,
      "##hört": 8088,
      "##äning": 8089,
      "##ota": 8090,
      "mysigt": 8091,
      "vetenskap": 8092,
      "snarare": 8093,
      "färdig": 8094,
      "Bor": 8095,
      "##vändigt": 8096,
      "barnet": 8097,
      "underl": 8098,
      "##öta": 8099,
      "##ancer": 8100,
      "lyckats": 8101,
      "kyrkan": 8102,
      "gjor": 8103,
      "kön": 8104,
      "besöka": 8105,
      "bete": 8106,
      "rev": 8107,
      "##ement": 8108,
      "möta": 8109,
      "motstånd": 8110,
      "omedel": 8111,
      "detalj": 8112,
      "##terade": 8113,
      "##fest": 8114,
      "kommuner": 8115,
      "##RA": 8116,
      "Lars": 8117,
      "prest": 8118,
      "Vilken": 8119,
      "lista": 8120,
      "Fredrik": 8121,
      "gäster": 8122,
      "vackert": 8123,
      "upph": 8124,
      "utvecklingen": 8125,
      "medarbetare": 8126,
      "last": 8127,
      "##ific": 8128,
      "yngre": 8129,
      "##dagar": 8130,
      "##liggör": 8131,
      "##repren": 8132,
      "##djur": 8133,
      "hinner": 8134,
      "IT": 8135,
      "spara": 8136,
      "finner": 8137,
      "##läggande": 8138,
      "varum": 8139,
      "##ycke": 8140,
      "Sim": 8141,
      "##ssk": 8142,
      "##fyll": 8143,
      "mått": 8144,
      "##äkerhet": 8145,
      "##ba": 8146,
      "tunn": 8147,
      "Pris": 8148,
      "tvungen": 8149,
      "dotter": 8150,
      "Vän": 8151,
      "##räft": 8152,
      "##osen": 8153,
      "inl": 8154,
      "##oriter": 8155,
      "##frågan": 8156,
      "ränta": 8157,
      "Nya": 8158,
      "##bilder": 8159,
      "##oppen": 8160,
      "profession": 8161,
      "##yser": 8162,
      "um": 8163,
      "amerikanska": 8164,
      "Fär": 8165,
      "digit": 8166,
      "##go": 8167,
      "##onser": 8168,
      "##färg": 8169,
      "##ostnader": 8170,
      "##ben": 8171,
      "##unk": 8172,
      "fir": 8173,
      "kallt": 8174,
      "fing": 8175,
      "öl": 8176,
      "struktur": 8177,
      "södra": 8178,
      "ringa": 8179,
      "##rapp": 8180,
      "rättigheter": 8181,
      "oer": 8182,
      "betalar": 8183,
      "God": 8184,
      "kyl": 8185,
      "Pat": 8186,
      "##to": 8187,
      "givetvis": 8188,
      "##elsens": 8189,
      "ladd": 8190,
      "skuld": 8191,
      "ersättning": 8192,
      "tri": 8193,
      "glädje": 8194,
      "ständigt": 8195,
      "sättet": 8196,
      "##nars": 8197,
      "Ob": 8198,
      "##kraft": 8199,
      "dal": 8200,
      "Stora": 8201,
      "##ome": 8202,
      "##giften": 8203,
      "medborg": 8204,
      "##tim": 8205,
      "smart": 8206,
      "##ätter": 8207,
      "mid": 8208,
      "info": 8209,
      "##rifter": 8210,
      "##ho": 8211,
      "rolig": 8212,
      "bjuder": 8213,
      "John": 8214,
      "seri": 8215,
      "transport": 8216,
      "##ruktion": 8217,
      "välj": 8218,
      "##ågan": 8219,
      "her": 8220,
      "##isering": 8221,
      "##delningen": 8222,
      "##ässigt": 8223,
      "##ventyr": 8224,
      "polisen": 8225,
      "ox": 8226,
      "##ira": 8227,
      "inrikt": 8228,
      "##öllop": 8229,
      "Tyskland": 8230,
      "känslor": 8231,
      "Pl": 8232,
      "##mm": 8233,
      "batt": 8234,
      "##set": 8235,
      "##unga": 8236,
      "definitivt": 8237,
      "##änger": 8238,
      "utsikt": 8239,
      "Tot": 8240,
      "bibli": 8241,
      "##kret": 8242,
      "chansen": 8243,
      "##ilje": 8244,
      "##pack": 8245,
      "nere": 8246,
      "sammanhang": 8247,
      "free": 8248,
      "Svar": 8249,
      "strå": 8250,
      "upplevelse": 8251,
      "berättade": 8252,
      "överra": 8253,
      "SK": 8254,
      "försäljning": 8255,
      "bur": 8256,
      "Vin": 8257,
      "##ranger": 8258,
      "saj": 8259,
      "omöj": 8260,
      "##karen": 8261,
      "Bro": 8262,
      "valet": 8263,
      "##hamn": 8264,
      "mött": 8265,
      "Någon": 8266,
      "enklare": 8267,
      "##aa": 8268,
      "##olvet": 8269,
      "målet": 8270,
      "##bergs": 8271,
      "##jön": 8272,
      "##iven": 8273,
      "##yggen": 8274,
      "Sta": 8275,
      "mannen": 8276,
      "mening": 8277,
      "Ek": 8278,
      "gravid": 8279,
      "##varo": 8280,
      "äger": 8281,
      "perspektiv": 8282,
      "befin": 8283,
      "##umma": 8284,
      "tillfälle": 8285,
      "svara": 8286,
      "tillverka": 8287,
      "##imal": 8288,
      "##stor": 8289,
      "säljer": 8290,
      "aktie": 8291,
      "grupper": 8292,
      "Helt": 8293,
      "tår": 8294,
      "arbetsplats": 8295,
      "lösning": 8296,
      "##atch": 8297,
      "tha": 8298,
      "cit": 8299,
      "##vers": 8300,
      "karaktär": 8301,
      "objekt": 8302,
      "lang": 8303,
      "hundar": 8304,
      "Resultat": 8305,
      "häv": 8306,
      "##ättning": 8307,
      "##iktigt": 8308,
      "industri": 8309,
      "varken": 8310,
      "tycka": 8311,
      "##ledare": 8312,
      "ap": 8313,
      "pratade": 8314,
      "aktuella": 8315,
      "respekt": 8316,
      "Cl": 8317,
      "fallet": 8318,
      "ref": 8319,
      "ökat": 8320,
      "Qu": 8321,
      "matcher": 8322,
      "skilj": 8323,
      "##onn": 8324,
      "##jänsten": 8325,
      "##ls": 8326,
      "personen": 8327,
      "botten": 8328,
      "enhet": 8329,
      "Andersson": 8330,
      "funktioner": 8331,
      "Stud": 8332,
      "startade": 8333,
      "##ostäder": 8334,
      "##akta": 8335,
      "San": 8336,
      "ST": 8337,
      "##oler": 8338,
      "##arbetet": 8339,
      "sällskap": 8340,
      "visat": 8341,
      "##ror": 8342,
      "Gun": 8343,
      "köket": 8344,
      "takt": 8345,
      "##äkter": 8346,
      "behåll": 8347,
      "hann": 8348,
      "##ris": 8349,
      "Tim": 8350,
      "nätverk": 8351,
      "Po": 8352,
      "inspiration": 8353,
      "Fri": 8354,
      "era": 8355,
      "brist": 8356,
      "Red": 8357,
      "skada": 8358,
      "torr": 8359,
      "uttryck": 8360,
      "Max": 8361,
      "kamer": 8362,
      "Bygg": 8363,
      "omfattande": 8364,
      "Mus": 8365,
      "sämre": 8366,
      "##gt": 8367,
      "Fal": 8368,
      "##arder": 8369,
      "ladda": 8370,
      "norra": 8371,
      "framförallt": 8372,
      "##erats": 8373,
      "##ollar": 8374,
      "intens": 8375,
      "röda": 8376,
      "skull": 8377,
      "energ": 8378,
      "fylla": 8379,
      "byggnad": 8380,
      "lans": 8381,
      "straff": 8382,
      "Dav": 8383,
      "##gra": 8384,
      "Alex": 8385,
      "Annars": 8386,
      "utvär": 8387,
      "myndighet": 8388,
      "##hy": 8389,
      "##rister": 8390,
      "toppen": 8391,
      "vardags": 8392,
      "##handa": 8393,
      "vila": 8394,
      "enorm": 8395,
      "vinn": 8396,
      "out": 8397,
      "modeller": 8398,
      "härliga": 8399,
      "föreläs": 8400,
      "bröd": 8401,
      "##natt": 8402,
      "bidra": 8403,
      "Fort": 8404,
      "platsen": 8405,
      "läste": 8406,
      "rakt": 8407,
      "bilj": 8408,
      "##han": 8409,
      "##åp": 8410,
      "oför": 8411,
      "symb": 8412,
      "##gl": 8413,
      "utgång": 8414,
      "##ident": 8415,
      "rull": 8416,
      "rekommenderar": 8417,
      "jobbat": 8418,
      "dricka": 8419,
      "syss": 8420,
      "personuppgifter": 8421,
      "Umeå": 8422,
      "##sar": 8423,
      "populära": 8424,
      "##okies": 8425,
      "##iell": 8426,
      "##ytande": 8427,
      "##rådet": 8428,
      "##OM": 8429,
      "studen": 8430,
      "##lipp": 8431,
      "ax": 8432,
      "##jänster": 8433,
      "mät": 8434,
      "svarta": 8435,
      "hej": 8436,
      "##gress": 8437,
      "resan": 8438,
      "##mäkt": 8439,
      "##iff": 8440,
      "hända": 8441,
      "lämnade": 8442,
      "ström": 8443,
      "fru": 8444,
      "slår": 8445,
      "överens": 8446,
      "Norge": 8447,
      "socker": 8448,
      "bruk": 8449,
      "##gande": 8450,
      "vaknade": 8451,
      "Innan": 8452,
      "stick": 8453,
      "kyrk": 8454,
      "##åter": 8455,
      "##dell": 8456,
      "metod": 8457,
      "hamnar": 8458,
      "Vilket": 8459,
      "Fre": 8460,
      "Något": 8461,
      "grill": 8462,
      "befolk": 8463,
      "politiker": 8464,
      "##au": 8465,
      "##teras": 8466,
      "hat": 8467,
      "##dan": 8468,
      "##kadem": 8469,
      "Hot": 8470,
      "rim": 8471,
      "bidrar": 8472,
      "befinner": 8473,
      "fack": 8474,
      "gäst": 8475,
      "desig": 8476,
      "fukt": 8477,
      "##atis": 8478,
      "##ire": 8479,
      "##enskt": 8480,
      "##EL": 8481,
      "##bell": 8482,
      "##betalning": 8483,
      "handling": 8484,
      "Ur": 8485,
      "mju": 8486,
      "banan": 8487,
      "vist": 8488,
      "Martin": 8489,
      "ätit": 8490,
      "##troll": 8491,
      "##ondon": 8492,
      "nödvänd": 8493,
      "inkomst": 8494,
      "##indra": 8495,
      "##fred": 8496,
      "Me": 8497,
      "##dela": 8498,
      "äventyr": 8499,
      "svag": 8500,
      "Örebro": 8501,
      "snabbare": 8502,
      "kass": 8503,
      "bolaget": 8504,
      "##vatten": 8505,
      "Sand": 8506,
      "Lag": 8507,
      "dejtingsidor": 8508,
      "känt": 8509,
      "arranger": 8510,
      "dejtingsajter": 8511,
      "##centr": 8512,
      "nack": 8513,
      "team": 8514,
      "håret": 8515,
      "glada": 8516,
      "##ose": 8517,
      "##amer": 8518,
      "redo": 8519,
      "##peiska": 8520,
      "partner": 8521,
      "##sland": 8522,
      "fräs": 8523,
      "slutar": 8524,
      "App": 8525,
      "##blick": 8526,
      "Gra": 8527,
      "tråkigt": 8528,
      "hall": 8529,
      "##området": 8530,
      "##lades": 8531,
      "lyx": 8532,
      "##derade": 8533,
      "ledare": 8534,
      "kallar": 8535,
      "##ställningen": 8536,
      "Gen": 8537,
      "##organis": 8538,
      "Dat": 8539,
      "bestämde": 8540,
      "följd": 8541,
      "salt": 8542,
      "##talien": 8543,
      "grundläggande": 8544,
      "frågade": 8545,
      "##bler": 8546,
      "risken": 8547,
      "idéer": 8548,
      "Ins": 8549,
      "systemet": 8550,
      "kommentarer": 8551,
      "extremt": 8552,
      "tittade": 8553,
      "enskilda": 8554,
      "kampan": 8555,
      "##edda": 8556,
      "motsvarande": 8557,
      "tillåt": 8558,
      "relation": 8559,
      "##maskin": 8560,
      "##ya": 8561,
      "kollade": 8562,
      "##hålla": 8563,
      "riktning": 8564,
      "##språk": 8565,
      "leverans": 8566,
      "manga": 8567,
      "eleverna": 8568,
      "##anken": 8569,
      "förrän": 8570,
      "##frågor": 8571,
      "pedagog": 8572,
      "hände": 8573,
      "pga": 8574,
      "##AG": 8575,
      "grann": 8576,
      "gemensamma": 8577,
      "##sområdet": 8578,
      "nyligen": 8579,
      "##server": 8580,
      "##SK": 8581,
      "grad": 8582,
      "tillverk": 8583,
      "Välkommen": 8584,
      "känslan": 8585,
      "##unktion": 8586,
      "##skraft": 8587,
      "##oth": 8588,
      "Mil": 8589,
      "##låt": 8590,
      "vuxen": 8591,
      "##föra": 8592,
      "förk": 8593,
      "Cent": 8594,
      "##lov": 8595,
      "##xor": 8596,
      "Skol": 8597,
      "tider": 8598,
      "allmänna": 8599,
      "förbund": 8600,
      "IF": 8601,
      "##iger": 8602,
      "##äna": 8603,
      "mörk": 8604,
      "svåra": 8605,
      "fant": 8606,
      "milit": 8607,
      "riktiga": 8608,
      "begär": 8609,
      "Vem": 8610,
      "kak": 8611,
      "Dal": 8612,
      "##ådespel": 8613,
      "närvarande": 8614,
      "varav": 8615,
      "Akt": 8616,
      "dörren": 8617,
      "möter": 8618,
      "Välj": 8619,
      "resurser": 8620,
      "kunskaper": 8621,
      "##bor": 8622,
      "##ältet": 8623,
      "renover": 8624,
      "##mär": 8625,
      "oerhört": 8626,
      "avseende": 8627,
      "mjölk": 8628,
      "mönster": 8629,
      "Hela": 8630,
      "sång": 8631,
      "korta": 8632,
      "offic": 8633,
      "No": 8634,
      "##ment": 8635,
      "Tha": 8636,
      "##unal": 8637,
      "Stad": 8638,
      "Is": 8639,
      "kollektiv": 8640,
      "Com": 8641,
      "medier": 8642,
      "Hos": 8643,
      "juster": 8644,
      "bröllop": 8645,
      "positivt": 8646,
      "fam": 8647,
      "##erier": 8648,
      "innov": 8649,
      "potent": 8650,
      "##barn": 8651,
      "##olkat": 8652,
      "##ongen": 8653,
      "ug": 8654,
      "tanken": 8655,
      "##ower": 8656,
      "##aktion": 8657,
      "##marknaden": 8658,
      "sönder": 8659,
      "##ningens": 8660,
      "##rätten": 8661,
      "total": 8662,
      "Col": 8663,
      "tillgängliga": 8664,
      "media": 8665,
      "##visa": 8666,
      "##hund": 8667,
      "##rädd": 8668,
      "nytta": 8669,
      "##iam": 8670,
      "ögonen": 8671,
      "##olut": 8672,
      "nått": 8673,
      "Terr": 8674,
      "Ab": 8675,
      "##CK": 8676,
      "VM": 8677,
      "##askiner": 8678,
      "##taget": 8679,
      "Imorgon": 8680,
      "kram": 8681,
      "aktiv": 8682,
      "##vikt": 8683,
      "insats": 8684,
      "hänsyn": 8685,
      "##ikro": 8686,
      "journa": 8687,
      "##mon": 8688,
      "##ctor": 8689,
      "##gångar": 8690,
      "ringde": 8691,
      "##hall": 8692,
      "hjärta": 8693,
      "##gått": 8694,
      "värdering": 8695,
      "baka": 8696,
      "London": 8697,
      "Sal": 8698,
      "räkna": 8699,
      "##lam": 8700,
      "Id": 8701,
      "kompletter": 8702,
      "erfarenheter": 8703,
      "##oris": 8704,
      "tecken": 8705,
      "tapp": 8706,
      "förekommer": 8707,
      "##ulär": 8708,
      "hast": 8709,
      "förändring": 8710,
      "närma": 8711,
      "##utveckling": 8712,
      "separ": 8713,
      "hav": 8714,
      "Goog": 8715,
      "torsdag": 8716,
      "Däremot": 8717,
      "##ensen": 8718,
      "uppleva": 8719,
      "nödvändigt": 8720,
      "##önstret": 8721,
      "##eda": 8722,
      "##rop": 8723,
      "##rom": 8724,
      "##etten": 8725,
      "problemet": 8726,
      "perfekta": 8727,
      "##dex": 8728,
      "##rarna": 8729,
      "mängder": 8730,
      "korrekt": 8731,
      "betrakt": 8732,
      "Magn": 8733,
      "jorden": 8734,
      "moderna": 8735,
      "##ämpa": 8736,
      "##ndagen": 8737,
      "Verk": 8738,
      "##AL": 8739,
      "supp": 8740,
      "##pos": 8741,
      "Lake": 8742,
      "Mina": 8743,
      "##oritet": 8744,
      "Daniel": 8745,
      "kombination": 8746,
      "stär": 8747,
      "##ugan": 8748,
      "älskade": 8749,
      "förändringar": 8750,
      "##räde": 8751,
      "##ekan": 8752,
      "##ebra": 8753,
      "Danmark": 8754,
      "födels": 8755,
      "##udd": 8756,
      "organisationer": 8757,
      "Lar": 8758,
      "patienter": 8759,
      "parti": 8760,
      "litter": 8761,
      "lopp": 8762,
      "II": 8763,
      "lagom": 8764,
      "taget": 8765,
      "fyr": 8766,
      "debatt": 8767,
      "utav": 8768,
      "regionen": 8769,
      "casin": 8770,
      "##smål": 8771,
      "##angen": 8772,
      "misstän": 8773,
      "maste": 8774,
      "intressanta": 8775,
      "vädret": 8776,
      "Plan": 8777,
      "värsta": 8778,
      "##isten": 8779,
      "##isera": 8780,
      "vap": 8781,
      "initi": 8782,
      "bu": 8783,
      "##sor": 8784,
      "Jesus": 8785,
      "vända": 8786,
      "förhand": 8787,
      "Produ": 8788,
      "utomhus": 8789,
      "bytt": 8790,
      "Tror": 8791,
      "marker": 8792,
      "##skt": 8793,
      "##irekt": 8794,
      "driver": 8795,
      "##inne": 8796,
      "utnyttj": 8797,
      "elev": 8798,
      "##verige": 8799,
      "konsekv": 8800,
      "föret": 8801,
      "Utan": 8802,
      "Super": 8803,
      "##anti": 8804,
      "begrepp": 8805,
      "fjärde": 8806,
      "Inne": 8807,
      "Mel": 8808,
      "##AS": 8809,
      "faktum": 8810,
      "##skole": 8811,
      "##mus": 8812,
      "hittills": 8813,
      "##kall": 8814,
      "bekräft": 8815,
      "snyggt": 8816,
      "as": 8817,
      "besökare": 8818,
      "rund": 8819,
      "tju": 8820,
      "sugen": 8821,
      "olyck": 8822,
      "anges": 8823,
      "##kande": 8824,
      "##jälp": 8825,
      "##lim": 8826,
      "sprid": 8827,
      "stats": 8828,
      "skrift": 8829,
      "##ningsdag": 8830,
      "livsmedel": 8831,
      "beskriver": 8832,
      "stranden": 8833,
      "förvar": 8834,
      "godis": 8835,
      "##katt": 8836,
      "##atet": 8837,
      "leta": 8838,
      "Lägg": 8839,
      "digital": 8840,
      "kontin": 8841,
      "institut": 8842,
      "##eskrivning": 8843,
      "hjärt": 8844,
      "Ung": 8845,
      "tillfällen": 8846,
      "funnits": 8847,
      "blommor": 8848,
      "##eller": 8849,
      "##qvist": 8850,
      "urval": 8851,
      "##sköter": 8852,
      "hoppa": 8853,
      "bodde": 8854,
      "planer": 8855,
      "Met": 8856,
      "##ått": 8857,
      "##tiden": 8858,
      "##ologisk": 8859,
      "##rafiken": 8860,
      "helhet": 8861,
      "##yter": 8862,
      "Information": 8863,
      "lät": 8864,
      "vintern": 8865,
      "hänga": 8866,
      "säkra": 8867,
      "ökade": 8868,
      "huden": 8869,
      "ställen": 8870,
      "genomföra": 8871,
      "Skåne": 8872,
      "svarar": 8873,
      "killar": 8874,
      "##usten": 8875,
      "stolt": 8876,
      "uppfyll": 8877,
      "listan": 8878,
      "date": 8879,
      "##lit": 8880,
      "gif": 8881,
      "naturen": 8882,
      "hälso": 8883,
      "exkl": 8884,
      "##rick": 8885,
      "nerv": 8886,
      "positiva": 8887,
      "föreg": 8888,
      "##försäkring": 8889,
      "##gås": 8890,
      "Johansson": 8891,
      "##världen": 8892,
      "hälften": 8893,
      "grej": 8894,
      "unika": 8895,
      "Vide": 8896,
      "##bon": 8897,
      "sover": 8898,
      "##platser": 8899,
      "Därefter": 8900,
      "##ction": 8901,
      "installer": 8902,
      "inlägget": 8903,
      "insatser": 8904,
      "##jung": 8905,
      "hotellet": 8906,
      "märkt": 8907,
      "onöd": 8908,
      "Nästa": 8909,
      "former": 8910,
      "aning": 8911,
      "inköp": 8912,
      "##befolkat": 8913,
      "##onder": 8914,
      "##äckte": 8915,
      "någonstans": 8916,
      "##gatan": 8917,
      "rapport": 8918,
      "levande": 8919,
      "förstör": 8920,
      "serv": 8921,
      "gn": 8922,
      "David": 8923,
      "sand": 8924,
      "orig": 8925,
      "metoder": 8926,
      "muse": 8927,
      "##TT": 8928,
      "##laget": 8929,
      "undantag": 8930,
      "##ID": 8931,
      "eventuella": 8932,
      "flykt": 8933,
      "fortsatte": 8934,
      "kill": 8935,
      "##ockey": 8936,
      "##läs": 8937,
      "bussen": 8938,
      "##ea": 8939,
      "##nivå": 8940,
      "sjukhus": 8941,
      "betalnings": 8942,
      "##namn": 8943,
      "aut": 8944,
      "utst": 8945,
      "individer": 8946,
      "positiv": 8947,
      "hundra": 8948,
      "##skad": 8949,
      "drift": 8950,
      "stall": 8951,
      "##rin": 8952,
      "skjut": 8953,
      "Sara": 8954,
      "tekniska": 8955,
      "Fören": 8956,
      "Syd": 8957,
      "Nik": 8958,
      "privata": 8959,
      "##fs": 8960,
      "##rid": 8961,
      "##mot": 8962,
      "##ream": 8963,
      "effektivt": 8964,
      "längst": 8965,
      "##åta": 8966,
      "##lösa": 8967,
      "snabba": 8968,
      "Liv": 8969,
      "Tän": 8970,
      "##fart": 8971,
      "##gas": 8972,
      "##ines": 8973,
      "nio": 8974,
      "smär": 8975,
      "dubbel": 8976,
      "Precis": 8977,
      "##öld": 8978,
      "bredvid": 8979,
      "##polit": 8980,
      "framtida": 8981,
      "##ftar": 8982,
      "pågår": 8983,
      "krist": 8984,
      "##star": 8985,
      "överallt": 8986,
      "nationella": 8987,
      "##itekt": 8988,
      "Frankrike": 8989,
      "nordväst": 8990,
      "Klicka": 8991,
      "användare": 8992,
      "Will": 8993,
      "##kommande": 8994,
      "##ledes": 8995,
      "##ällen": 8996,
      "minskar": 8997,
      "##amål": 8998,
      "##viken": 8999,
      "##löst": 9000,
      "prioriter": 9001,
      "sådär": 9002,
      "motsvar": 9003,
      "uttal": 9004,
      "##stöd": 9005,
      "##äcken": 9006,
      "##istisk": 9007,
      "##uer": 9008,
      "##sprocess": 9009,
      "##huvud": 9010,
      "författare": 9011,
      "flyttade": 9012,
      "avanc": 9013,
      "avgifter": 9014,
      "framgångs": 9015,
      "seger": 9016,
      "golv": 9017,
      "ledande": 9018,
      "##otta": 9019,
      "deltagare": 9020,
      "Andre": 9021,
      "turn": 9022,
      "##sprodu": 9023,
      "##ema": 9024,
      "spelat": 9025,
      "##handel": 9026,
      "beb": 9027,
      "ordet": 9028,
      "##inen": 9029,
      "desto": 9030,
      "veg": 9031,
      "använt": 9032,
      "grunden": 9033,
      "##trodu": 9034,
      "##elserna": 9035,
      "##anen": 9036,
      "##utbildning": 9037,
      "rosa": 9038,
      "belopp": 9039,
      "hänger": 9040,
      "##marknad": 9041,
      "förf": 9042,
      "slipper": 9043,
      "Rad": 9044,
      "##säg": 9045,
      "själ": 9046,
      "##burg": 9047,
      "##fulla": 9048,
      "Mich": 9049,
      "fräsch": 9050,
      "styrelsen": 9051,
      "representer": 9052,
      "tillhanda": 9053,
      "träffar": 9054,
      "student": 9055,
      "gift": 9056,
      "Ryss": 9057,
      "möten": 9058,
      "At": 9059,
      "##punkter": 9060,
      "##sex": 9061,
      "##beroende": 9062,
      "##sid": 9063,
      "vanligtvis": 9064,
      "rek": 9065,
      "##brik": 9066,
      "##itionen": 9067,
      "hjärtat": 9068,
      "omsorg": 9069,
      "cookies": 9070,
      "##chen": 9071,
      "##start": 9072,
      "##imul": 9073,
      "Ra": 9074,
      "##xx": 9075,
      "långsikt": 9076,
      "växa": 9077,
      "motiver": 9078,
      "##andid": 9079,
      "förd": 9080,
      "##pac": 9081,
      "träffade": 9082,
      "nyheter": 9083,
      "värre": 9084,
      "##mant": 9085,
      "räknas": 9086,
      "bedömning": 9087,
      "##ikal": 9088,
      "föreningen": 9089,
      "##ep": 9090,
      "gröna": 9091,
      "##eten": 9092,
      "tillväxt": 9093,
      "Stat": 9094,
      "ställning": 9095,
      "Både": 9096,
      "Rom": 9097,
      "##institut": 9098,
      "restauranger": 9099,
      "elektron": 9100,
      "hypotek": 9101,
      "Övr": 9102,
      "##eff": 9103,
      "##värde": 9104,
      "flex": 9105,
      "avgift": 9106,
      "golvet": 9107,
      "hell": 9108,
      "kors": 9109,
      "mom": 9110,
      "skaffa": 9111,
      "bloggar": 9112,
      "af": 9113,
      "perioden": 9114,
      "ledig": 9115,
      "röra": 9116,
      "##old": 9117,
      "förhoppningsvis": 9118,
      "hinna": 9119,
      "fäng": 9120,
      "klassiska": 9121,
      "kop": 9122,
      "version": 9123,
      "handen": 9124,
      "marken": 9125,
      "födelsedag": 9126,
      "live": 9127,
      "Ka": 9128,
      "utföra": 9129,
      "##AD": 9130,
      "laga": 9131,
      "##edning": 9132,
      "gill": 9133,
      "Slut": 9134,
      "##fot": 9135,
      "Post": 9136,
      "##stiden": 9137,
      "hunden": 9138,
      "##försälj": 9139,
      "Måste": 9140,
      "uppmärksam": 9141,
      "hypotekslan": 9142,
      "julkla": 9143,
      "skil": 9144,
      "Blir": 9145,
      "avlö": 9146,
      "##tog": 9147,
      "startar": 9148,
      "##gäng": 9149,
      "alltför": 9150,
      "stjärn": 9151,
      "##ostnad": 9152,
      "##byggnad": 9153,
      "dejtingsida": 9154,
      "rätta": 9155,
      "Inom": 9156,
      "ledam": 9157,
      "anlägg": 9158,
      "skickas": 9159,
      "når": 9160,
      "##demokraterna": 9161,
      "##kör": 9162,
      "##oteket": 9163,
      "##ivande": 9164,
      "Lär": 9165,
      "sjukvård": 9166,
      "exp": 9167,
      "na": 9168,
      "uppmärksamhet": 9169,
      "##itel": 9170,
      "digitala": 9171,
      "varor": 9172,
      "##emiär": 9173,
      "hushåll": 9174,
      "Pet": 9175,
      "##öcker": 9176,
      "passade": 9177,
      "stött": 9178,
      "##stolen": 9179,
      "##minister": 9180,
      "album": 9181,
      "minsta": 9182,
      "fira": 9183,
      "städer": 9184,
      "avstånd": 9185,
      "##hög": 9186,
      "bestämmer": 9187,
      "vattendrag": 9188,
      "Star": 9189,
      "morm": 9190,
      "##juter": 9191,
      "länk": 9192,
      "duktig": 9193,
      "öppnar": 9194,
      "##sättningen": 9195,
      "klubben": 9196,
      "fritt": 9197,
      "onsdag": 9198,
      "egenskaper": 9199,
      "##grupper": 9200,
      "##ival": 9201,
      "överg": 9202,
      "represent": 9203,
      "motiv": 9204,
      "##ständigt": 9205,
      "Ag": 9206,
      "aktivt": 9207,
      "Magnus": 9208,
      "utrustning": 9209,
      "förklara": 9210,
      "kok": 9211,
      "butiker": 9212,
      "##yrelsen": 9213,
      "moder": 9214,
      "bestämma": 9215,
      "sprang": 9216,
      "särskilda": 9217,
      "packa": 9218,
      "##struktur": 9219,
      "##vak": 9220,
      "Alltså": 9221,
      "sms": 9222,
      "Van": 9223,
      "kem": 9224,
      "##own": 9225,
      "allmänt": 9226,
      "landsting": 9227,
      "##givning": 9228,
      "upplever": 9229,
      "finansiering": 9230,
      "##föring": 9231,
      "tyska": 9232,
      "badrum": 9233,
      "##mannen": 9234,
      "##sbolag": 9235,
      "skru": 9236,
      "##kul": 9237,
      "##ES": 9238,
      "##iellt": 9239,
      "naturligt": 9240,
      "##släpp": 9241,
      "ägare": 9242,
      "##öns": 9243,
      "tillgänglig": 9244,
      "snäll": 9245,
      "beställa": 9246,
      "##central": 9247,
      "släppa": 9248,
      "tidningen": 9249,
      "##mun": 9250,
      "resul": 9251,
      "inre": 9252,
      "församling": 9253,
      "funderar": 9254,
      "skickar": 9255,
      "##tur": 9256,
      "##utbild": 9257,
      "Dagens": 9258,
      "escort": 9259,
      "strand": 9260,
      "hästar": 9261,
      "lärt": 9262,
      "fång": 9263,
      "käns": 9264,
      "uts": 9265,
      "mol": 9266,
      "bedriv": 9267,
      "förskott": 9268,
      "besvär": 9269,
      "##istan": 9270,
      "##tekn": 9271,
      "sömn": 9272,
      "Åh": 9273,
      "##sområden": 9274,
      "da": 9275,
      "##ekonom": 9276,
      "SD": 9277,
      "avgörande": 9278,
      "undersökning": 9279,
      "texten": 9280,
      "tillfället": 9281,
      "arbetat": 9282,
      "närmaste": 9283,
      "lukt": 9284,
      "låtar": 9285,
      "##ior": 9286,
      "ky": 9287,
      "kallad": 9288,
      "##oft": 9289,
      "##resa": 9290,
      "dåliga": 9291,
      "känn": 9292,
      "##vinna": 9293,
      "förvän": 9294,
      "kvalit": 9295,
      "##ale": 9296,
      "tyg": 9297,
      "omfattar": 9298,
      "arbetsm": 9299,
      "Speci": 9300,
      "saken": 9301,
      "##istrat": 9302,
      "gemensamt": 9303,
      "pul": 9304,
      "##riter": 9305,
      "påbörj": 9306,
      "verkligheten": 9307,
      "skådespel": 9308,
      "barns": 9309,
      "##sfören": 9310,
      "förmån": 9311,
      "##iget": 9312,
      "##ogna": 9313,
      "##svall": 9314,
      "letar": 9315,
      "kä": 9316,
      "kommenter": 9317,
      "förtroende": 9318,
      "##les": 9319,
      "läsare": 9320,
      "Mad": 9321,
      "##råket": 9322,
      "##vetenskap": 9323,
      "##fly": 9324,
      "##hopp": 9325,
      "längtar": 9326,
      "##sätter": 9327,
      "##nare": 9328,
      "##dra": 9329,
      "skador": 9330,
      "##stäm": 9331,
      "Tycker": 9332,
      "Vilka": 9333,
      "rem": 9334,
      "Google": 9335,
      "web": 9336,
      "##shop": 9337,
      "bjöd": 9338,
      "erbjudanden": 9339,
      "##gred": 9340,
      "York": 9341,
      "välkommen": 9342,
      "Kultur": 9343,
      "##fisk": 9344,
      "eld": 9345,
      "syr": 9346,
      "##schef": 9347,
      "lat": 9348,
      "##ums": 9349,
      "miljarder": 9350,
      "##enhet": 9351,
      "pojk": 9352,
      "Sna": 9353,
      "##ävle": 9354,
      "nöjda": 9355,
      "kurser": 9356,
      "##NING": 9357,
      "optim": 9358,
      "satsa": 9359,
      "Bel": 9360,
      "cert": 9361,
      "lägenheten": 9362,
      "##strin": 9363,
      "skid": 9364,
      "##ama": 9365,
      "##akna": 9366,
      "##byte": 9367,
      "tonår": 9368,
      "tråd": 9369,
      "varma": 9370,
      "##rädde": 9371,
      "##cel": 9372,
      "fördelar": 9373,
      "Koll": 9374,
      "Bak": 9375,
      "Totalt": 9376,
      "Blev": 9377,
      "grejer": 9378,
      "Sof": 9379,
      "gräns": 9380,
      "##gent": 9381,
      "##mas": 9382,
      "Ele": 9383,
      "##lista": 9384,
      "föreb": 9385,
      "pär": 9386,
      "rekr": 9387,
      "erkän": 9388,
      "övertyg": 9389,
      "Terrängen": 9390,
      "are": 9391,
      "##verkade": 9392,
      "vänder": 9393,
      "##varor": 9394,
      "##itann": 9395,
      "##partiet": 9396,
      "överlev": 9397,
      "kommunens": 9398,
      "##yller": 9399,
      "varv": 9400,
      "##fe": 9401,
      "##cer": 9402,
      "Tillsammans": 9403,
      "Mag": 9404,
      "personalen": 9405,
      "you": 9406,
      "engagemang": 9407,
      "appar": 9408,
      "##bu": 9409,
      "söta": 9410,
      "Pe": 9411,
      "Dejting": 9412,
      "artiklar": 9413,
      "##xt": 9414,
      "##liv": 9415,
      "Rätt": 9416,
      "resor": 9417,
      "karriär": 9418,
      "frågar": 9419,
      "fria": 9420,
      "speg": 9421,
      "##jobb": 9422,
      "miljön": 9423,
      "op": 9424,
      "##bilar": 9425,
      "tru": 9426,
      "silver": 9427,
      "kära": 9428,
      "##ley": 9429,
      "sven": 9430,
      "##ush": 9431,
      "##yckt": 9432,
      "upptäcka": 9433,
      "uppfölj": 9434,
      "fundera": 9435,
      "brän": 9436,
      "glass": 9437,
      "betalning": 9438,
      "bära": 9439,
      "hörde": 9440,
      "##ställda": 9441,
      "tusen": 9442,
      "##material": 9443,
      "##aner": 9444,
      "tydlig": 9445,
      "entrepren": 9446,
      "##venemang": 9447,
      "nyckel": 9448,
      "Stefan": 9449,
      "arrang": 9450,
      "tyck": 9451,
      "Flera": 9452,
      "ryggen": 9453,
      "##steg": 9454,
      "##ÄR": 9455,
      "##unna": 9456,
      "termin": 9457,
      "ho": 9458,
      "Oavsett": 9459,
      "lämnat": 9460,
      "##briken": 9461,
      "stads": 9462,
      "##arskap": 9463,
      "##lo": 9464,
      "offentliga": 9465,
      "##fria": 9466,
      "##unskap": 9467,
      "allting": 9468,
      "framöver": 9469,
      "##IF": 9470,
      "aktier": 9471,
      "##lagt": 9472,
      "utrymme": 9473,
      "ag": 9474,
      "nyss": 9475,
      "##fullt": 9476,
      "##éer": 9477,
      "noggr": 9478,
      "sign": 9479,
      "saknas": 9480,
      "föreställ": 9481,
      "##komma": 9482,
      "tillägg": 9483,
      "dum": 9484,
      "##hets": 9485,
      "##SB": 9486,
      "sydväst": 9487,
      "försökt": 9488,
      "##ordet": 9489,
      "##britann": 9490,
      "skydda": 9491,
      "##anien": 9492,
      "##ordningen": 9493,
      "Åter": 9494,
      "Tw": 9495,
      "konferens": 9496,
      "Vårt": 9497,
      "naturliga": 9498,
      "kil": 9499,
      "Bir": 9500,
      "herr": 9501,
      "##sjö": 9502,
      "Foto": 9503,
      "ort": 9504,
      "dog": 9505,
      "revis": 9506,
      "diskutera": 9507,
      "##pas": 9508,
      "samling": 9509,
      "##tok": 9510,
      "folket": 9511,
      "para": 9512,
      "missl": 9513,
      "skiljer": 9514,
      "Känns": 9515,
      "Jonas": 9516,
      "Sten": 9517,
      "vinner": 9518,
      "döm": 9519,
      "skolor": 9520,
      "##fel": 9521,
      "##cken": 9522,
      "britt": 9523,
      "vågar": 9524,
      "nagon": 9525,
      "##drarna": 9526,
      "##mäktige": 9527,
      "##isch": 9528,
      "bio": 9529,
      "automatiskt": 9530,
      "##urt": 9531,
      "eventuellt": 9532,
      "hamn": 9533,
      "sticka": 9534,
      "noga": 9535,
      "situationen": 9536,
      "samla": 9537,
      "##stat": 9538,
      "##ästare": 9539,
      "dro": 9540,
      "##prov": 9541,
      "Led": 9542,
      "##egr": 9543,
      "driva": 9544,
      "lokaler": 9545,
      "up": 9546,
      "ifall": 9547,
      "handlade": 9548,
      "oxå": 9549,
      "##rimin": 9550,
      "jordbruk": 9551,
      "##mos": 9552,
      "##histor": 9553,
      "enlighet": 9554,
      "Paris": 9555,
      "##ivån": 9556,
      "äpp": 9557,
      "##ational": 9558,
      "##acka": 9559,
      "avser": 9560,
      "tränar": 9561,
      "vapen": 9562,
      "As": 9563,
      "dollar": 9564,
      "balkon": 9565,
      "kung": 9566,
      "Följ": 9567,
      "block": 9568,
      "Gar": 9569,
      "studenter": 9570,
      "##delsen": 9571,
      "##ripande": 9572,
      "rädda": 9573,
      "civ": 9574,
      "faller": 9575,
      "fris": 9576,
      "bostäder": 9577,
      "##och": 9578,
      "##ää": 9579,
      "##ahl": 9580,
      "rejält": 9581,
      "##rument": 9582,
      "##ivis": 9583,
      "damm": 9584,
      "##ehör": 9585,
      "##sper": 9586,
      "koncentr": 9587,
      "##serligen": 9588,
      "Nilsson": 9589,
      "ansvarar": 9590,
      "kyck": 9591,
      "skar": 9592,
      "##ässan": 9593,
      "Dr": 9594,
      "socialt": 9595,
      "kortare": 9596,
      "konstnär": 9597,
      "huvudsakligen": 9598,
      "##övning": 9599,
      "##oster": 9600,
      "##bladet": 9601,
      "inträff": 9602,
      "##asy": 9603,
      "kläd": 9604,
      "eftermiddag": 9605,
      "##ävling": 9606,
      "påstå": 9607,
      "sannolikt": 9608,
      "My": 9609,
      "klin": 9610,
      "delvis": 9611,
      "händelser": 9612,
      "##räk": 9613,
      "##spart": 9614,
      "mätt": 9615,
      "Kvinnor": 9616,
      "##empl": 9617,
      "längd": 9618,
      "Tekn": 9619,
      "Projekt": 9620,
      "Cre": 9621,
      "noll": 9622,
      "tjänsten": 9623,
      "Beh": 9624,
      "kameran": 9625,
      "kommunal": 9626,
      "tisdag": 9627,
      "normal": 9628,
      "##RO": 9629,
      "Storbritann": 9630,
      "##upplev": 9631,
      "Air": 9632,
      "minim": 9633,
      "utfor": 9634,
      "og": 9635,
      "##ows": 9636,
      "stål": 9637,
      "Bild": 9638,
      "påsk": 9639,
      "fakta": 9640,
      "##hal": 9641,
      "Änd": 9642,
      "sekunder": 9643,
      "Lö": 9644,
      "täck": 9645,
      "förening": 9646,
      "intresserade": 9647,
      "##söka": 9648,
      "##bror": 9649,
      "totala": 9650,
      "aktiva": 9651,
      "myndigheter": 9652,
      "Marie": 9653,
      "stämmer": 9654,
      "kompisar": 9655,
      "omständ": 9656,
      "situationer": 9657,
      "tax": 9658,
      "##ånd": 9659,
      "avlöningsdag": 9660,
      "anslutning": 9661,
      "##rass": 9662,
      "tävlingen": 9663,
      "litteratur": 9664,
      "mötet": 9665,
      "arbetsl": 9666,
      "##omin": 9667,
      "gård": 9668,
      "Kina": 9669,
      "skyl": 9670,
      "##sverket": 9671,
      "förmed": 9672,
      "Årets": 9673,
      "dim": 9674,
      "##entals": 9675,
      "##ics": 9676,
      "framgår": 9677,
      "##spunkt": 9678,
      "mikro": 9679,
      "##ännisk": 9680,
      "egendom": 9681,
      "Ac": 9682,
      "##kap": 9683,
      "mult": 9684,
      "wh": 9685,
      "jo": 9686,
      "Emma": 9687,
      "diagn": 9688,
      "sym": 9689,
      "Istället": 9690,
      "lämnas": 9691,
      "##ötet": 9692,
      "##sbruk": 9693,
      "styrka": 9694,
      "rörelse": 9695,
      "ost": 9696,
      "dikt": 9697,
      "nyfiken": 9698,
      "England": 9699,
      "Aust": 9700,
      "franska": 9701,
      "##IT": 9702,
      "Juli": 9703,
      "##tokoll": 9704,
      "##rali": 9705,
      "temperatur": 9706,
      "Paul": 9707,
      "föremål": 9708,
      "intill": 9709,
      "Bill": 9710,
      "##filmer": 9711,
      "mas": 9712,
      "forum": 9713,
      "omedelbart": 9714,
      "##äda": 9715,
      "##yndigheten": 9716,
      "hemmet": 9717,
      "con": 9718,
      "##alle": 9719,
      "##ografi": 9720,
      "staten": 9721,
      "tol": 9722,
      "sant": 9723,
      "City": 9724,
      "imp": 9725,
      "ing": 9726,
      "unik": 9727,
      "Pass": 9728,
      "Sil": 9729,
      "finna": 9730,
      "##sr": 9731,
      "butiken": 9732,
      "Pen": 9733,
      "Konst": 9734,
      "##ross": 9735,
      "bedö": 9736,
      "Henrik": 9737,
      "önskemål": 9738,
      "omöjligt": 9739,
      "Väx": 9740,
      "sorg": 9741,
      "##resultat": 9742,
      "utbr": 9743,
      "##olja": 9744,
      "låga": 9745,
      "Göteborgs": 9746,
      "##sund": 9747,
      "##yper": 9748,
      "mamm": 9749,
      "Ryssland": 9750,
      "regi": 9751,
      "##takter": 9752,
      "Li": 9753,
      "ingred": 9754,
      "iP": 9755,
      "kontrollera": 9756,
      "särskild": 9757,
      "rengör": 9758,
      "Kram": 9759,
      "luften": 9760,
      "sägs": 9761,
      "ra": 9762,
      "bror": 9763,
      "##ile": 9764,
      "utbildnings": 9765,
      "oh": 9766,
      "##verse": 9767,
      "##ares": 9768,
      "lagstift": 9769,
      "påm": 9770,
      "vag": 9771,
      "##linjer": 9772,
      "##usin": 9773,
      "hyra": 9774,
      "inner": 9775,
      "halva": 9776,
      "ångest": 9777,
      "Bolag": 9778,
      "##landet": 9779,
      "skapat": 9780,
      "##ij": 9781,
      "Gusta": 9782,
      "trevliga": 9783,
      "gas": 9784,
      "dyker": 9785,
      "ga": 9786,
      "##AM": 9787,
      "Tel": 9788,
      "leverantörer": 9789,
      "forskare": 9790,
      "##bra": 9791,
      "åsikter": 9792,
      "##område": 9793,
      "##intress": 9794,
      "däck": 9795,
      "qu": 9796,
      "##ssätt": 9797,
      "tjock": 9798,
      "##vel": 9799,
      "patient": 9800,
      "##ony": 9801,
      "##anschen": 9802,
      "marknadsföring": 9803,
      "##flytt": 9804,
      "populär": 9805,
      "anord": 9806,
      "leka": 9807,
      "##itioner": 9808,
      "ekonomiskt": 9809,
      "beröm": 9810,
      "##oph": 9811,
      "##jukdom": 9812,
      "##antering": 9813,
      "Tjejer": 9814,
      "svårare": 9815,
      "##ängning": 9816,
      "skade": 9817,
      "##fattning": 9818,
      "Jack": 9819,
      "stack": 9820,
      "planering": 9821,
      "##sfull": 9822,
      "##östra": 9823,
      "utöver": 9824,
      "kärn": 9825,
      "tycks": 9826,
      "bom": 9827,
      "hehe": 9828,
      "trygghet": 9829,
      "Gävle": 9830,
      "##nsam": 9831,
      "främsta": 9832,
      "install": 9833,
      "##icy": 9834,
      "hjul": 9835,
      "läget": 9836,
      "inser": 9837,
      "##ands": 9838,
      "strid": 9839,
      "kontrakt": 9840,
      "##usen": 9841,
      "##anser": 9842,
      "överl": 9843,
      "Dig": 9844,
      "##banan": 9845,
      "Redan": 9846,
      "Tex": 9847,
      "Bu": 9848,
      "##entil": 9849,
      "##botten": 9850,
      "shopping": 9851,
      "skoj": 9852,
      "välkomna": 9853,
      "rep": 9854,
      "##måga": 9855,
      "##ivalen": 9856,
      "familje": 9857,
      "##skam": 9858,
      "##döm": 9859,
      "##OL": 9860,
      "##kass": 9861,
      "sovrum": 9862,
      "Und": 9863,
      "parkering": 9864,
      "mobilen": 9865,
      "##onden": 9866,
      "##oppa": 9867,
      "oj": 9868,
      "medför": 9869,
      "Rober": 9870,
      "Ho": 9871,
      "öron": 9872,
      "vägar": 9873,
      "##yk": 9874,
      "jättebra": 9875,
      "ros": 9876,
      "Tom": 9877,
      "##ötterna": 9878,
      "försvinner": 9879,
      "njut": 9880,
      "äkta": 9881,
      "förvå": 9882,
      "jack": 9883,
      "ifråg": 9884,
      "ekonomisk": 9885,
      "lyssnar": 9886,
      "använde": 9887,
      "närmast": 9888,
      "golf": 9889,
      "Italien": 9890,
      "##ibel": 9891,
      "##vända": 9892,
      "stimul": 9893,
      "dejt": 9894,
      "##lle": 9895,
      "familjer": 9896,
      "beslutet": 9897,
      "slott": 9898,
      "loss": 9899,
      "aktiver": 9900,
      "##illkor": 9901,
      "rök": 9902,
      "landets": 9903,
      "##spolit": 9904,
      "värm": 9905,
      "vanligaste": 9906,
      "tränings": 9907,
      "Inget": 9908,
      "Tra": 9909,
[...]
